#ifndef MODEL_TFLITE_H
#define MODEL_TFLITE_H


unsigned int model_tflite_len = 21976;
unsigned char model_tflite[] = {
 0x1c, 0x00, 0x00, 0x00, 0x54, 0x46, 0x4c, 0x33, 0x14, 0x00, 0x20, 0x00,
  0x1c, 0x00, 0x18, 0x00, 0x14, 0x00, 0x10, 0x00, 0x0c, 0x00, 0x00, 0x00,
  0x08, 0x00, 0x04, 0x00, 0x14, 0x00, 0x00, 0x00, 0x1c, 0x00, 0x00, 0x00,
  0x90, 0x00, 0x00, 0x00, 0xe8, 0x00, 0x00, 0x00, 0x7c, 0x3d, 0x00, 0x00,
  0x8c, 0x3d, 0x00, 0x00, 0x18, 0x55, 0x00, 0x00, 0x03, 0x00, 0x00, 0x00,
  0x01, 0x00, 0x00, 0x00, 0x04, 0x00, 0x00, 0x00, 0x6e, 0xc1, 0xff, 0xff,
  0x0c, 0x00, 0x00, 0x00, 0x1c, 0x00, 0x00, 0x00, 0x40, 0x00, 0x00, 0x00,
  0x0f, 0x00, 0x00, 0x00, 0x73, 0x65, 0x72, 0x76, 0x69, 0x6e, 0x67, 0x5f,
  0x64, 0x65, 0x66, 0x61, 0x75, 0x6c, 0x74, 0x00, 0x01, 0x00, 0x00, 0x00,
  0x04, 0x00, 0x00, 0x00, 0x8c, 0xff, 0xff, 0xff, 0x16, 0x00, 0x00, 0x00,
  0x04, 0x00, 0x00, 0x00, 0x0d, 0x00, 0x00, 0x00, 0x71, 0x75, 0x61, 0x6e,
  0x74, 0x5f, 0x64, 0x65, 0x6e, 0x73, 0x65, 0x5f, 0x31, 0x00, 0x00, 0x00,
  0x01, 0x00, 0x00, 0x00, 0x04, 0x00, 0x00, 0x00, 0x56, 0xc2, 0xff, 0xff,
  0x04, 0x00, 0x00, 0x00, 0x0c, 0x00, 0x00, 0x00, 0x63, 0x6f, 0x6e, 0x76,
  0x32, 0x64, 0x5f, 0x69, 0x6e, 0x70, 0x75, 0x74, 0x00, 0x00, 0x00, 0x00,
  0x02, 0x00, 0x00, 0x00, 0x34, 0x00, 0x00, 0x00, 0x04, 0x00, 0x00, 0x00,
  0xdc, 0xff, 0xff, 0xff, 0x19, 0x00, 0x00, 0x00, 0x04, 0x00, 0x00, 0x00,
  0x13, 0x00, 0x00, 0x00, 0x43, 0x4f, 0x4e, 0x56, 0x45, 0x52, 0x53, 0x49,
  0x4f, 0x4e, 0x5f, 0x4d, 0x45, 0x54, 0x41, 0x44, 0x41, 0x54, 0x41, 0x00,
  0x08, 0x00, 0x0c, 0x00, 0x08, 0x00, 0x04, 0x00, 0x08, 0x00, 0x00, 0x00,
  0x18, 0x00, 0x00, 0x00, 0x04, 0x00, 0x00, 0x00, 0x13, 0x00, 0x00, 0x00,
  0x6d, 0x69, 0x6e, 0x5f, 0x72, 0x75, 0x6e, 0x74, 0x69, 0x6d, 0x65, 0x5f,
  0x76, 0x65, 0x72, 0x73, 0x69, 0x6f, 0x6e, 0x00, 0x1a, 0x00, 0x00, 0x00,
  0x90, 0x3c, 0x00, 0x00, 0x88, 0x3c, 0x00, 0x00, 0x70, 0x3c, 0x00, 0x00,
  0x68, 0x3c, 0x00, 0x00, 0x18, 0x3c, 0x00, 0x00, 0xc8, 0x3b, 0x00, 0x00,
  0xc0, 0x3b, 0x00, 0x00, 0xb8, 0x3b, 0x00, 0x00, 0xa8, 0x37, 0x00, 0x00,
  0x58, 0x37, 0x00, 0x00, 0x50, 0x37, 0x00, 0x00, 0x48, 0x37, 0x00, 0x00,
  0x38, 0x33, 0x00, 0x00, 0xe8, 0x32, 0x00, 0x00, 0xe0, 0x32, 0x00, 0x00,
  0xd8, 0x32, 0x00, 0x00, 0xd0, 0x32, 0x00, 0x00, 0xc0, 0x02, 0x00, 0x00,
  0x30, 0x02, 0x00, 0x00, 0x28, 0x02, 0x00, 0x00, 0xd8, 0x00, 0x00, 0x00,
  0xa0, 0x00, 0x00, 0x00, 0x98, 0x00, 0x00, 0x00, 0x90, 0x00, 0x00, 0x00,
  0x70, 0x00, 0x00, 0x00, 0x04, 0x00, 0x00, 0x00, 0x3a, 0xc3, 0xff, 0xff,
  0x04, 0x00, 0x00, 0x00, 0x5c, 0x00, 0x00, 0x00, 0x0c, 0x00, 0x00, 0x00,
  0x08, 0x00, 0x0e, 0x00, 0x08, 0x00, 0x04, 0x00, 0x08, 0x00, 0x00, 0x00,
  0x10, 0x00, 0x00, 0x00, 0x2c, 0x00, 0x00, 0x00, 0x00, 0x00, 0x06, 0x00,
  0x08, 0x00, 0x04, 0x00, 0x06, 0x00, 0x00, 0x00, 0x04, 0x00, 0x00, 0x00,
  0x02, 0x00, 0x00, 0x00, 0xeb, 0x03, 0x00, 0x00, 0xd0, 0x07, 0x00, 0x00,
  0x00, 0x00, 0x0a, 0x00, 0x10, 0x00, 0x0c, 0x00, 0x08, 0x00, 0x04, 0x00,
  0x0a, 0x00, 0x00, 0x00, 0x02, 0x00, 0x00, 0x00, 0x02, 0x00, 0x00, 0x00,
  0x04, 0x00, 0x00, 0x00, 0x06, 0x00, 0x00, 0x00, 0x32, 0x2e, 0x31, 0x34,
  0x2e, 0x30, 0x00, 0x00, 0xa2, 0xc3, 0xff, 0xff, 0x04, 0x00, 0x00, 0x00,
  0x10, 0x00, 0x00, 0x00, 0x31, 0x2e, 0x31, 0x34, 0x2e, 0x30, 0x00, 0x00,
  0x00, 0x00, 0x00, 0x00, 0x00, 0x00, 0x00, 0x00, 0xf4, 0xac, 0xff, 0xff,
  0xf8, 0xac, 0xff, 0xff, 0xc6, 0xc3, 0xff, 0xff, 0x04, 0x00, 0x00, 0x00,
  0x28, 0x00, 0x00, 0x00, 0x76, 0xff, 0xff, 0xff, 0x19, 0xff, 0xff, 0xff,
  0xc0, 0xff, 0xff, 0xff, 0x27, 0x01, 0x00, 0x00, 0x8f, 0xfe, 0xff, 0xff,
  0xb4, 0xff, 0xff, 0xff, 0xb1, 0xfe, 0xff, 0xff, 0xf1, 0x00, 0x00, 0x00,
  0x44, 0x01, 0x00, 0x00, 0x77, 0x00, 0x00, 0x00, 0xfa, 0xc3, 0xff, 0xff,
  0x04, 0x00, 0x00, 0x00, 0x40, 0x01, 0x00, 0x00, 0x12, 0xec, 0xd3, 0x12,
  0x14, 0xc8, 0xc6, 0xac, 0x06, 0xf2, 0xff, 0xec, 0xeb, 0xc7, 0xcb, 0xf7,
  0x0d, 0xfe, 0x0d, 0xd9, 0xcd, 0x23, 0xd6, 0x08, 0xfd, 0x0d, 0xba, 0xe5,
  0xe8, 0x06, 0x0b, 0x1f, 0x0f, 0xf0, 0x07, 0xcb, 0xa3, 0x0a, 0x08, 0x08,
  0xbe, 0xd0, 0x13, 0x14, 0x0d, 0xf0, 0xe8, 0x16, 0x01, 0x0f, 0x13, 0xbc,
  0xc8, 0xd6, 0xed, 0x07, 0xfa, 0x0c, 0x15, 0xed, 0xde, 0xc7, 0xf3, 0xd6,
  0x0e, 0x1c, 0x13, 0x10, 0x11, 0x86, 0x0c, 0x9d, 0x03, 0xed, 0x81, 0x0c,
  0xc6, 0xd1, 0xb3, 0xbf, 0xca, 0xde, 0x0a, 0x10, 0xe2, 0xca, 0xb7, 0x0f,
  0x15, 0x05, 0x19, 0x16, 0xe1, 0x06, 0xd8, 0xea, 0xcd, 0x15, 0x10, 0x0d,
  0x12, 0xaf, 0xe8, 0xee, 0x02, 0xf2, 0xb9, 0x08, 0xa1, 0x14, 0xed, 0xa0,
  0xb7, 0x0f, 0xfa, 0x0a, 0xd2, 0x11, 0xa6, 0x0b, 0x17, 0x09, 0xd9, 0x15,
  0xa7, 0x08, 0x03, 0xfc, 0x16, 0xd2, 0xc5, 0xd6, 0xef, 0x01, 0x1c, 0x01,
  0x05, 0xec, 0xf5, 0x13, 0x0b, 0xd1, 0x0d, 0x17, 0x07, 0xce, 0xf7, 0xe6,
  0xfb, 0x20, 0x16, 0xda, 0xa4, 0xd9, 0x19, 0xd0, 0x19, 0xdd, 0xf5, 0x0a,
  0xf7, 0x14, 0xdf, 0xd0, 0xbd, 0x0b, 0xf7, 0x08, 0xa6, 0xd4, 0x11, 0xb3,
  0x0d, 0x24, 0x11, 0x0f, 0x0e, 0x0c, 0x0d, 0xb7, 0xe3, 0x00, 0x12, 0xaf,
  0xd3, 0xd8, 0x06, 0x8f, 0x10, 0x96, 0x06, 0xca, 0xcc, 0xe0, 0x17, 0x0c,
  0x12, 0xdd, 0x17, 0xc9, 0x05, 0x15, 0xc4, 0x12, 0xa2, 0xff, 0xff, 0xd4,
  0xc1, 0xc6, 0xa0, 0x13, 0x1b, 0xf8, 0x12, 0x09, 0xdc, 0xde, 0xd0, 0x16,
  0x17, 0x06, 0xbb, 0x1b, 0xac, 0xc1, 0xe6, 0xdb, 0x15, 0x08, 0xed, 0x06,
  0x06, 0x1b, 0xd1, 0xe5, 0xfd, 0xfe, 0xe7, 0x03, 0x0a, 0x11, 0xb9, 0x11,
  0x21, 0x03, 0x11, 0xec, 0xf4, 0xe3, 0xf3, 0xb9, 0x08, 0xcf, 0x17, 0xc3,
  0xc2, 0xd6, 0x16, 0xde, 0x11, 0xf9, 0x1e, 0x02, 0x04, 0xd2, 0xcd, 0x0e,
  0xb1, 0x16, 0xe0, 0xa2, 0xde, 0xcb, 0xce, 0x13, 0xf2, 0x1b, 0xf3, 0xe5,
  0xd7, 0xe2, 0x20, 0x13, 0xdf, 0x04, 0x17, 0xeb, 0x0a, 0x12, 0xc0, 0xde,
  0xe4, 0x09, 0xdc, 0x07, 0xa0, 0xe6, 0x06, 0xe2, 0x0d, 0x1c, 0xdd, 0xea,
  0x0d, 0x0a, 0x14, 0xc6, 0xb4, 0xcc, 0xcc, 0x07, 0x12, 0x0c, 0xe8, 0xd4,
  0xb0, 0xcd, 0x18, 0xa6, 0x7c, 0xae, 0xff, 0xff, 0x4a, 0xc5, 0xff, 0xff,
  0x04, 0x00, 0x00, 0x00, 0x80, 0x00, 0x00, 0x00, 0xe1, 0x00, 0x00, 0x00,
  0x86, 0xff, 0xff, 0xff, 0x07, 0x00, 0x00, 0x00, 0x49, 0x00, 0x00, 0x00,
  0xa5, 0x00, 0x00, 0x00, 0xbd, 0x01, 0x00, 0x00, 0x4e, 0x01, 0x00, 0x00,
  0x89, 0x01, 0x00, 0x00, 0xe3, 0x00, 0x00, 0x00, 0xa3, 0x00, 0x00, 0x00,
  0xa7, 0x01, 0x00, 0x00, 0x3e, 0x00, 0x00, 0x00, 0xc7, 0x00, 0x00, 0x00,
  0xa5, 0x00, 0x00, 0x00, 0xf0, 0x01, 0x00, 0x00, 0xce, 0x00, 0x00, 0x00,
  0xee, 0x00, 0x00, 0x00, 0x3a, 0xff, 0xff, 0xff, 0x0f, 0x00, 0x00, 0x00,
  0xa9, 0x00, 0x00, 0x00, 0xbd, 0x01, 0x00, 0x00, 0xeb, 0x00, 0x00, 0x00,
  0x4d, 0x02, 0x00, 0x00, 0xbb, 0xff, 0xff, 0xff, 0xfb, 0xfe, 0xff, 0xff,
  0x2b, 0xff, 0xff, 0xff, 0xdf, 0xfd, 0xff, 0xff, 0x9e, 0x00, 0x00, 0x00,
  0x1e, 0x02, 0x00, 0x00, 0xbb, 0x00, 0x00, 0x00, 0xf4, 0x00, 0x00, 0x00,
  0x75, 0x01, 0x00, 0x00, 0xd6, 0xc5, 0xff, 0xff, 0x04, 0x00, 0x00, 0x00,
  0x00, 0x30, 0x00, 0x00, 0xfc, 0x04, 0x03, 0xff, 0x01, 0xef, 0x06, 0x07,
  0xfb, 0xfa, 0x01, 0x02, 0xf8, 0x0b, 0x08, 0xf6, 0xe9, 0xfc, 0xf0, 0xfb,
  0xfb, 0xe4, 0x02, 0xf6, 0xf5, 0x04, 0xf9, 0xfb, 0xf2, 0xff, 0xfa, 0xfa,
  0xf9, 0x06, 0x01, 0x06, 0x02, 0xed, 0x0f, 0x13, 0xff, 0x11, 0x02, 0x0c,
  0x1a, 0x00, 0x06, 0x06, 0x00, 0xfe, 0xeb, 0x02, 0x06, 0x0b, 0xfd, 0xf7,
  0x00, 0x0d, 0x06, 0xf0, 0x08, 0xe8, 0xfb, 0xfc, 0xfe, 0xf9, 0x10, 0xf6,
  0xfa, 0x07, 0xe9, 0xf6, 0xff, 0xfe, 0x00, 0x08, 0x01, 0x07, 0xfd, 0x0a,
  0xed, 0x00, 0x10, 0xeb, 0xeb, 0x09, 0xf5, 0xf6, 0x00, 0xf5, 0xf7, 0xf9,
  0x02, 0xff, 0xfe, 0xf9, 0xf8, 0xfe, 0x05, 0x06, 0x0b, 0x07, 0xef, 0x0e,
  0xfd, 0x03, 0x0b, 0xfe, 0x09, 0xfc, 0x01, 0x01, 0xf4, 0xfd, 0xfb, 0x02,
  0xfe, 0xf7, 0xeb, 0xfb, 0xfc, 0x00, 0xfb, 0xf7, 0x00, 0xf8, 0xf8, 0xf9,
  0xeb, 0xe9, 0xe2, 0xf5, 0xf9, 0x04, 0xf2, 0x03, 0xf7, 0xf7, 0xf2, 0xfb,
  0x01, 0xfe, 0xef, 0xed, 0xea, 0xe4, 0xee, 0xf0, 0xf1, 0xfc, 0xdd, 0xf7,
  0xf7, 0xf4, 0xe9, 0xec, 0xf8, 0xec, 0xee, 0xea, 0xf9, 0xff, 0x16, 0x06,
  0xf8, 0x02, 0x0c, 0xf6, 0xf4, 0x04, 0xf5, 0xf2, 0xf2, 0x00, 0xed, 0xef,
  0x04, 0x0a, 0x06, 0xf5, 0x02, 0x08, 0xf3, 0x01, 0xef, 0xff, 0x02, 0x03,
  0xfd, 0xfb, 0xf9, 0xf1, 0xde, 0xf8, 0xf0, 0xf0, 0xeb, 0xde, 0x02, 0xe0,
  0xf8, 0xed, 0xea, 0x01, 0xe6, 0xe8, 0xf5, 0xdd, 0xf9, 0xfb, 0xfc, 0xf7,
  0xf3, 0xfc, 0x02, 0xf6, 0xf9, 0x0d, 0xeb, 0xf6, 0xfd, 0xee, 0xf2, 0xfa,
  0x07, 0x03, 0x06, 0xf8, 0xff, 0x0c, 0x0d, 0x03, 0x00, 0xeb, 0x02, 0x02,
  0xf2, 0xfa, 0x01, 0xfd, 0xf7, 0x06, 0x05, 0x0d, 0x04, 0x07, 0x2a, 0xec,
  0xf2, 0xdb, 0x09, 0x01, 0xdc, 0xe6, 0xfe, 0xcf, 0x24, 0x04, 0x10, 0x01,
  0x0b, 0x07, 0x05, 0xe7, 0xfc, 0xee, 0x03, 0x0a, 0xfe, 0xff, 0x16, 0x01,
  0x05, 0x00, 0x11, 0xfd, 0x08, 0x07, 0xfc, 0xfe, 0xf8, 0x14, 0x02, 0xf2,
  0xfe, 0x04, 0xf9, 0xf9, 0xe9, 0x08, 0x19, 0xfb, 0x01, 0x10, 0xf1, 0x0d,
  0x0d, 0xfa, 0x0f, 0x0e, 0x31, 0x25, 0x06, 0x10, 0xfb, 0x11, 0x05, 0x11,
  0x04, 0x01, 0x1e, 0x27, 0x1f, 0x12, 0x16, 0x1f, 0x3d, 0x2f, 0x01, 0x20,
  0xf9, 0x15, 0x01, 0x09, 0xff, 0xf7, 0x2d, 0x07, 0x0a, 0x0e, 0x1c, 0x20,
  0x0f, 0x20, 0x05, 0x14, 0x04, 0x06, 0xf2, 0x10, 0x0e, 0xf8, 0x07, 0x03,
  0x20, 0x24, 0x14, 0x0a, 0x1f, 0x1d, 0x18, 0x22, 0x07, 0x04, 0xf9, 0xf8,
  0x07, 0x07, 0xe5, 0x07, 0x04, 0x2f, 0x08, 0xff, 0x1e, 0x0b, 0x02, 0x14,
  0x08, 0xfe, 0xf8, 0xfb, 0x04, 0xfd, 0xf4, 0x07, 0xfc, 0x10, 0xec, 0xf4,
  0x06, 0xfd, 0xff, 0x05, 0xf1, 0xfe, 0x03, 0x06, 0x04, 0x0e, 0x06, 0x05,
  0xfb, 0x09, 0xfd, 0x01, 0x0f, 0xf5, 0x09, 0x00, 0xf2, 0x00, 0x0f, 0x02,
  0x01, 0x0c, 0xff, 0xec, 0x06, 0xfb, 0x02, 0xfd, 0x05, 0xef, 0x00, 0xfc,
  0xf5, 0x08, 0xe8, 0x07, 0x03, 0xdc, 0xf4, 0xe1, 0x05, 0x03, 0x05, 0x02,
  0x1c, 0x09, 0x04, 0x05, 0x09, 0x10, 0x26, 0xff, 0x05, 0xfe, 0xe5, 0x04,
  0x19, 0x04, 0x00, 0x17, 0xf7, 0x15, 0x0d, 0x09, 0x09, 0xf8, 0xfb, 0x07,
  0xff, 0xfb, 0xef, 0xfd, 0x03, 0x09, 0xf5, 0xf1, 0xf9, 0xee, 0xfd, 0xfd,
  0x05, 0xfb, 0x10, 0x01, 0x06, 0x05, 0x0d, 0xfe, 0x0d, 0xf4, 0xfd, 0x0e,
  0x00, 0xfd, 0x00, 0xf8, 0xeb, 0xf7, 0xf9, 0xfd, 0x05, 0xfe, 0xf0, 0xfc,
  0x02, 0x05, 0x01, 0xf7, 0x0c, 0xfd, 0xfd, 0x0a, 0xe6, 0xfa, 0xff, 0xf6,
  0x02, 0x15, 0x08, 0x03, 0x08, 0x06, 0xfe, 0xf3, 0xff, 0x06, 0xf3, 0x10,
  0x09, 0x0b, 0xf3, 0x11, 0x10, 0xff, 0x03, 0x0d, 0x09, 0x07, 0x13, 0xfb,
  0xfa, 0x0a, 0x06, 0x0e, 0x15, 0x07, 0xff, 0x05, 0x02, 0x06, 0xf2, 0xff,
  0xf5, 0xf8, 0x09, 0x06, 0xfd, 0xf5, 0x07, 0xff, 0xf6, 0x08, 0x13, 0xfa,
  0x0c, 0x0b, 0x03, 0x0c, 0x06, 0xfe, 0x01, 0x08, 0xe2, 0xe8, 0xfc, 0xe5,
  0x14, 0x0a, 0x14, 0x0f, 0x08, 0xfc, 0x08, 0x18, 0x07, 0x0e, 0x10, 0x0c,
  0x0a, 0x10, 0x0c, 0x0a, 0xea, 0x03, 0xf5, 0x01, 0x06, 0xe4, 0x24, 0xf6,
  0xf5, 0xf1, 0x08, 0x08, 0xfd, 0x01, 0x02, 0xfe, 0xea, 0x0d, 0xef, 0x07,
  0xf9, 0xeb, 0x35, 0xe5, 0xf7, 0xf8, 0xfc, 0x0c, 0x04, 0xf4, 0x0b, 0xee,
  0xff, 0xf6, 0xf9, 0xf2, 0xed, 0xf6, 0xe7, 0x05, 0x0a, 0x02, 0xf6, 0x02,
  0x14, 0x00, 0xfe, 0xf8, 0x12, 0xf3, 0x03, 0xf1, 0xf1, 0x06, 0xe8, 0x01,
  0xfd, 0x07, 0x05, 0x00, 0x06, 0x01, 0x0c, 0x08, 0xe6, 0x00, 0x07, 0xf6,
  0xfb, 0x06, 0x01, 0x14, 0x0a, 0x03, 0x02, 0xfb, 0x07, 0xfc, 0xf8, 0xf0,
  0xff, 0x02, 0x00, 0x03, 0x08, 0xfb, 0x00, 0x17, 0x0e, 0x0a, 0x05, 0x0d,
  0x09, 0x07, 0x08, 0x0c, 0xf7, 0x17, 0xe6, 0x0a, 0x02, 0xcf, 0x23, 0xe9,
  0xfb, 0x0f, 0x02, 0x05, 0x01, 0x09, 0x0c, 0x03, 0x08, 0xf4, 0xe8, 0xf4,
  0xf2, 0xeb, 0xfa, 0xe8, 0x00, 0x00, 0x00, 0xf0, 0x00, 0x07, 0x00, 0x05,
  0xed, 0xe1, 0xf3, 0xe4, 0xe4, 0xf5, 0xe5, 0xf3, 0xf1, 0xea, 0xe2, 0xe9,
  0xf5, 0xed, 0xe4, 0xdb, 0x14, 0xe5, 0xd8, 0xf3, 0xe1, 0xff, 0xe7, 0xd9,
  0xd2, 0x06, 0xe8, 0xe1, 0x1e, 0xf9, 0xf9, 0xfb, 0xcc, 0xe1, 0xff, 0xcc,
  0xee, 0x01, 0xe0, 0x05, 0xf4, 0xff, 0xe2, 0xee, 0x0b, 0xf1, 0xd4, 0xe4,
  0x05, 0xfa, 0xf8, 0xff, 0xfc, 0x0a, 0x00, 0x13, 0x0e, 0x07, 0x04, 0x07,
  0x09, 0xfc, 0xfe, 0x00, 0x15, 0x01, 0x11, 0xfc, 0xfe, 0x08, 0x00, 0xfb,
  0x09, 0x00, 0x03, 0x07, 0x09, 0x05, 0x03, 0xfe, 0x31, 0x05, 0x13, 0x00,
  0x15, 0x23, 0x06, 0xe3, 0x17, 0x0a, 0x10, 0xf6, 0xfe, 0xf2, 0x03, 0xff,
  0x25, 0xf5, 0x08, 0x05, 0x02, 0x13, 0xf9, 0x05, 0xec, 0x00, 0xf3, 0xe5,
  0xfc, 0xd8, 0xf0, 0xe4, 0x0c, 0xfc, 0xf2, 0xe6, 0xe8, 0x01, 0xf7, 0xfa,
  0xfd, 0xf5, 0xf0, 0xfe, 0xef, 0xfb, 0xfc, 0xfd, 0xed, 0xf6, 0x09, 0xea,
  0xe4, 0xf7, 0x03, 0x05, 0xf1, 0xfb, 0xfd, 0xf1, 0x00, 0x11, 0xdd, 0xfa,
  0xf5, 0x08, 0x04, 0xfb, 0xff, 0xf9, 0xfd, 0x1c, 0x0c, 0xff, 0xf9, 0x09,
  0x09, 0x18, 0xfa, 0x09, 0xf9, 0x07, 0xf9, 0xff, 0x04, 0xee, 0x06, 0xfa,
  0x00, 0x04, 0x04, 0x0d, 0x05, 0xfe, 0x02, 0xfe, 0x17, 0x0f, 0xf7, 0x15,
  0x13, 0x16, 0xe8, 0xfc, 0xfc, 0x04, 0x03, 0x02, 0x0e, 0xf6, 0x10, 0x01,
  0x17, 0x14, 0x05, 0x1a, 0x14, 0xf5, 0x0c, 0x03, 0x09, 0x00, 0x14, 0xff,
  0x0a, 0xee, 0x05, 0x08, 0x27, 0x0f, 0xf7, 0x0b, 0xf1, 0xfd, 0x0c, 0x07,
  0x0b, 0x17, 0xf2, 0x17, 0x14, 0x18, 0x06, 0x18, 0x04, 0x0d, 0xf5, 0xfe,
  0xed, 0x00, 0x13, 0x01, 0xe5, 0xf1, 0xf7, 0xfd, 0xf3, 0x0d, 0xf9, 0xfa,
  0xe7, 0x13, 0x0a, 0x0b, 0x03, 0xfb, 0x0d, 0x0b, 0x05, 0xf2, 0x0e, 0x02,
  0xfa, 0x16, 0xfe, 0x0e, 0xf9, 0xfd, 0xfb, 0xfd, 0xfe, 0xf4, 0x09, 0x04,
  0xf3, 0x00, 0xf3, 0xf7, 0x0b, 0x05, 0x01, 0xfd, 0x11, 0xf2, 0xf1, 0xf8,
  0x06, 0x0a, 0xe1, 0xee, 0xea, 0xf8, 0xfe, 0xef, 0xf6, 0xe8, 0xfb, 0xed,
  0xf4, 0xf1, 0x06, 0x05, 0xfe, 0xfe, 0xfc, 0xfb, 0xf2, 0xf7, 0xfc, 0xec,
  0xf5, 0xe1, 0xf2, 0xe6, 0x07, 0x02, 0xfa, 0x09, 0xf5, 0xf2, 0xfc, 0xf8,
  0xf2, 0x06, 0x01, 0x09, 0x0b, 0x11, 0xfb, 0x08, 0xf7, 0x0d, 0xfd, 0x02,
  0xf7, 0xff, 0x0c, 0xf7, 0x07, 0xee, 0x04, 0x05, 0x07, 0x15, 0xf9, 0xf6,
  0xfa, 0x0e, 0x0b, 0x10, 0xfd, 0x02, 0x0b, 0x0a, 0x07, 0x01, 0x05, 0x14,
  0x04, 0x15, 0x04, 0xfb, 0x09, 0x06, 0x0d, 0xff, 0xe9, 0x07, 0xf8, 0x22,
  0x0b, 0xfb, 0xf1, 0x02, 0xef, 0x08, 0xfd, 0x04, 0x02, 0xd7, 0xe3, 0xde,
  0xdd, 0x03, 0xce, 0xe1, 0xe1, 0xe9, 0xe4, 0xe5, 0xec, 0xee, 0xe9, 0xed,
  0xe2, 0xe8, 0x13, 0xf8, 0xd8, 0x0d, 0xf9, 0x1a, 0xee, 0xe2, 0xe2, 0xf0,
  0xf4, 0xff, 0xe6, 0xec, 0x01, 0x01, 0x10, 0xf7, 0xda, 0xfe, 0x0a, 0x01,
  0xfa, 0xe5, 0xff, 0x02, 0xfe, 0x0c, 0xf0, 0x08, 0xf7, 0xfd, 0x0f, 0xfc,
  0xe8, 0xfe, 0x05, 0x0c, 0x03, 0xe9, 0xf7, 0x0c, 0xf2, 0x05, 0xf0, 0x07,
  0xf4, 0x19, 0x0a, 0x08, 0xfb, 0xfd, 0x11, 0xf1, 0xf5, 0xfd, 0x01, 0x11,
  0xf9, 0x0e, 0x10, 0x0b, 0xfc, 0x00, 0x01, 0x08, 0x03, 0x09, 0x02, 0x06,
  0xf6, 0xf9, 0x03, 0xfb, 0xf0, 0x00, 0x04, 0xf3, 0xff, 0xfd, 0x06, 0x03,
  0x03, 0x03, 0x03, 0x01, 0xff, 0xf5, 0x02, 0xf9, 0x00, 0x03, 0x03, 0x08,
  0xff, 0xf5, 0x0f, 0xfe, 0x02, 0x0f, 0xf8, 0xe5, 0xf9, 0x03, 0xff, 0xf6,
  0x0a, 0xfa, 0x00, 0x03, 0x02, 0xfc, 0x0b, 0xfa, 0x09, 0x08, 0xfa, 0xf3,
  0x0b, 0xfe, 0x06, 0xfd, 0x0f, 0xfd, 0xf8, 0x06, 0x08, 0xf8, 0xf5, 0xf5,
  0xf9, 0x07, 0xf8, 0xd9, 0xf0, 0x06, 0xf9, 0x02, 0xf6, 0xfa, 0xf9, 0x05,
  0xef, 0xff, 0x0c, 0xfb, 0xfb, 0x09, 0x02, 0xf3, 0xf8, 0xe8, 0x01, 0x0c,
  0xe0, 0xf9, 0xf3, 0xee, 0x19, 0x11, 0x0f, 0x02, 0x03, 0x0c, 0xee, 0x0c,
  0x0d, 0x08, 0x0a, 0x1d, 0xfc, 0x05, 0x08, 0xfe, 0xf7, 0x0b, 0x08, 0xf8,
  0x01, 0x03, 0xfa, 0x10, 0x06, 0x07, 0x08, 0x06, 0xf3, 0x08, 0xfe, 0x10,
  0x0d, 0x01, 0xf3, 0x02, 0x06, 0x03, 0xf1, 0x05, 0x09, 0xf8, 0x0b, 0xfe,
  0xfe, 0xf8, 0xfd, 0x04, 0xfd, 0x07, 0xf3, 0xf9, 0x01, 0xff, 0xfa, 0x07,
  0xf9, 0xfb, 0x09, 0x07, 0x04, 0xfe, 0x0e, 0xfd, 0x02, 0xf7, 0x08, 0x08,
  0xfa, 0x0b, 0xfa, 0xfc, 0x04, 0x02, 0xf4, 0x05, 0xf6, 0xfc, 0xff, 0xfd,
  0xf7, 0x06, 0x0b, 0x0e, 0x07, 0x0d, 0x00, 0xf8, 0xf7, 0xf4, 0x17, 0x03,
  0xf7, 0x0a, 0x0d, 0xf5, 0xbd, 0xc2, 0xf6, 0xca, 0xab, 0xf4, 0xef, 0xe9,
  0xca, 0xf2, 0xb4, 0xcf, 0xfe, 0xf4, 0xcc, 0xee, 0xec, 0xde, 0x00, 0xd9,
  0xce, 0xff, 0x0d, 0x07, 0xea, 0x01, 0xd9, 0xee, 0x0b, 0xf3, 0xd5, 0xfb,
  0xf3, 0x02, 0x0b, 0xeb, 0xf6, 0x0b, 0x0f, 0x07, 0xfc, 0xfc, 0xee, 0xfd,
  0x05, 0xff, 0xf0, 0xf6, 0x00, 0x09, 0x08, 0x08, 0x03, 0x05, 0x1c, 0x01,
  0x09, 0x12, 0x01, 0x03, 0x01, 0xf1, 0xfa, 0x00, 0x20, 0xfc, 0x08, 0xf9,
  0xf5, 0xf7, 0x0d, 0x02, 0x02, 0x0f, 0x00, 0x0f, 0x14, 0x10, 0x05, 0x08,
  0xf6, 0x03, 0x03, 0x03, 0xf9, 0xfa, 0x03, 0xfc, 0x05, 0xfb, 0x0e, 0xff,
  0x03, 0xfc, 0x05, 0xf3, 0x0e, 0x17, 0xe3, 0x1f, 0x02, 0xd7, 0x2b, 0xe0,
  0xfa, 0xfb, 0xfb, 0x04, 0xfa, 0x12, 0x22, 0x00, 0xfc, 0x07, 0x03, 0xfe,
  0xfa, 0xf3, 0x18, 0x01, 0x02, 0x03, 0xf8, 0x16, 0x1a, 0x15, 0xfb, 0x1b,
  0xfd, 0x02, 0x0d, 0xff, 0x0d, 0x00, 0x12, 0xfc, 0xf8, 0xf6, 0x07, 0x01,
  0xf5, 0x0b, 0x04, 0xfa, 0xf9, 0xfb, 0xed, 0x06, 0x05, 0xf1, 0xfe, 0xef,
  0xfd, 0x0e, 0x05, 0xff, 0xfa, 0x16, 0x0e, 0x12, 0xfa, 0xf9, 0xf3, 0xfc,
  0xf3, 0x08, 0xe8, 0xf4, 0x02, 0xfc, 0x03, 0xf3, 0x0e, 0x08, 0x00, 0x09,
  0x08, 0xff, 0xfc, 0x04, 0xff, 0xfe, 0xf4, 0x00, 0xfc, 0xee, 0x06, 0xfe,
  0xef, 0xf9, 0x0c, 0xfc, 0xe6, 0x02, 0x15, 0xfc, 0x08, 0x0b, 0xff, 0x15,
  0xfc, 0xf9, 0x00, 0xfe, 0xfc, 0xfe, 0x00, 0xff, 0x04, 0x06, 0xed, 0x0b,
  0x03, 0x02, 0x00, 0x06, 0xfe, 0xfe, 0x02, 0x03, 0xf1, 0x05, 0x08, 0x10,
  0xe7, 0xfd, 0x1c, 0xfb, 0x01, 0x17, 0x03, 0x19, 0x12, 0xfc, 0xfb, 0x05,
  0xeb, 0x07, 0xf5, 0x0f, 0x08, 0x0b, 0x09, 0xfd, 0x01, 0xfe, 0x03, 0x02,
  0x01, 0x05, 0x03, 0x05, 0x0b, 0x1d, 0x07, 0x0c, 0xfe, 0xf4, 0xfc, 0x00,
  0xfd, 0x06, 0xf5, 0xe4, 0x08, 0xfe, 0xec, 0xf7, 0xe8, 0xf2, 0xf3, 0xfd,
  0x08, 0xfc, 0x10, 0xfd, 0xfc, 0x05, 0xfb, 0xe7, 0xfa, 0xfe, 0x09, 0x0a,
  0xf2, 0xf6, 0x06, 0x00, 0xf0, 0x11, 0x12, 0xf6, 0xff, 0x03, 0x1b, 0x05,
  0x0f, 0x0d, 0x0a, 0x0f, 0xfe, 0xf2, 0x06, 0xfa, 0x0f, 0x07, 0xf6, 0x04,
  0x00, 0xeb, 0xf3, 0x07, 0x10, 0xf8, 0x06, 0x0e, 0xf9, 0x08, 0x04, 0x07,
  0x0d, 0x0e, 0xf0, 0x0b, 0x08, 0xe5, 0xf1, 0xf0, 0x0c, 0xfe, 0x0c, 0x0f,
  0xf8, 0x01, 0x0c, 0x00, 0x02, 0x08, 0x08, 0x0f, 0x09, 0xfd, 0xfe, 0xf8,
  0xfe, 0xfc, 0x09, 0x04, 0xfb, 0x14, 0x02, 0x0e, 0x04, 0xf0, 0x02, 0xfb,
  0xf5, 0xfe, 0xff, 0x03, 0x07, 0x02, 0xf5, 0xff, 0xfd, 0x09, 0xfe, 0x00,
  0x06, 0x00, 0x05, 0x06, 0xfc, 0x01, 0xfe, 0x02, 0xf4, 0x04, 0x0d, 0xf6,
  0x05, 0xff, 0x08, 0x03, 0x13, 0x09, 0x0a, 0x10, 0x10, 0x0b, 0xdd, 0xfe,
  0xff, 0xfe, 0x08, 0xff, 0x1e, 0xff, 0x10, 0x0c, 0x10, 0xed, 0x0b, 0x04,
  0xf1, 0x0c, 0xda, 0x0c, 0x0b, 0x03, 0xfc, 0xf0, 0x0b, 0xf6, 0xf1, 0xf7,
  0x03, 0xf4, 0x20, 0xf2, 0xfe, 0x0a, 0xf8, 0x38, 0x04, 0x18, 0xfd, 0xfc,
  0x1c, 0x03, 0xf3, 0x07, 0xef, 0xfd, 0x13, 0xed, 0x00, 0x15, 0x05, 0x00,
  0x18, 0x03, 0x04, 0xfe, 0x07, 0x09, 0x00, 0x05, 0x09, 0xf5, 0x03, 0x05,
  0xfe, 0x10, 0x07, 0x08, 0xf3, 0xf3, 0xf6, 0x05, 0x07, 0x0a, 0x00, 0x11,
  0xfb, 0xf5, 0x06, 0xf4, 0x01, 0x00, 0xf7, 0xfe, 0x0d, 0x0d, 0xfc, 0x01,
  0xfc, 0x04, 0xf8, 0x01, 0xf0, 0xe1, 0xf1, 0xc2, 0xc3, 0xee, 0xe9, 0xec,
  0xe7, 0xf8, 0xd2, 0xdf, 0xf6, 0xe3, 0xc8, 0xe8, 0xfd, 0xf2, 0xf9, 0xf1,
  0xea, 0x05, 0x14, 0xf6, 0xe4, 0xdc, 0xea, 0x03, 0xdb, 0xea, 0xf0, 0xdc,
  0xf9, 0x04, 0x0a, 0xfd, 0xfe, 0x04, 0x18, 0x01, 0xfe, 0xf2, 0xfc, 0x04,
  0x04, 0x03, 0xfd, 0xf8, 0xf5, 0x0f, 0xfe, 0x0c, 0x02, 0x04, 0x15, 0x18,
  0x04, 0x02, 0x01, 0x04, 0xf7, 0x08, 0x00, 0x04, 0x1c, 0xfc, 0x02, 0x08,
  0xf9, 0xfb, 0x0d, 0xf0, 0xf9, 0xee, 0x07, 0x02, 0x09, 0x18, 0x02, 0x14,
  0x0d, 0xfc, 0xf8, 0x03, 0xfd, 0x09, 0xfb, 0x09, 0xfb, 0xeb, 0xf9, 0x03,
  0xf9, 0x06, 0x0a, 0x01, 0xf3, 0x00, 0xec, 0xfd, 0xfd, 0x02, 0xfa, 0xef,
  0xfd, 0x13, 0xff, 0xff, 0xf8, 0x10, 0xff, 0x08, 0xdc, 0xfe, 0xff, 0xf9,
  0x04, 0xfb, 0xf9, 0x05, 0x02, 0x02, 0x02, 0xfd, 0xfe, 0xfd, 0xf7, 0xfa,
  0x06, 0x04, 0xe8, 0x03, 0x02, 0xe4, 0x00, 0x19, 0x0b, 0xf8, 0x00, 0x0d,
  0xf9, 0x0f, 0x06, 0x02, 0xf9, 0x0e, 0xea, 0xff, 0xf7, 0xf5, 0x1a, 0xf6,
  0x02, 0xfc, 0x00, 0x0b, 0xee, 0x14, 0xff, 0x09, 0xfb, 0x11, 0xf6, 0x13,
  0x0d, 0xff, 0x08, 0x08, 0x02, 0x09, 0x0a, 0x00, 0x03, 0xfb, 0x15, 0x05,
  0x10, 0xfa, 0x03, 0xfd, 0x0a, 0x05, 0x10, 0x0e, 0x00, 0x0b, 0xfb, 0xf1,
  0x17, 0x05, 0x0a, 0xf8, 0x02, 0xf0, 0xee, 0xf6, 0xe6, 0xee, 0x08, 0xf2,
  0xe6, 0xfc, 0xe7, 0xf5, 0x04, 0x0c, 0xf8, 0xfe, 0xdf, 0xf5, 0x0c, 0xec,
  0xe7, 0xfc, 0x0c, 0x04, 0xfa, 0x01, 0xf2, 0xf8, 0xfd, 0xff, 0xed, 0xfe,
  0xf7, 0xf5, 0x0e, 0xf0, 0xf4, 0x09, 0xec, 0x08, 0x03, 0xfe, 0xf0, 0x00,
  0x00, 0x07, 0xf6, 0x02, 0xfc, 0xfa, 0x02, 0xee, 0xef, 0x01, 0xf3, 0xf6,
  0x05, 0xf8, 0xf3, 0x02, 0x01, 0x08, 0xf4, 0x09, 0xfe, 0xf8, 0x18, 0xf0,
  0xfc, 0x05, 0xed, 0x0f, 0x02, 0x15, 0x01, 0xe8, 0x0b, 0xf8, 0xf5, 0xfc,
  0x18, 0xf8, 0xf2, 0xf3, 0xfc, 0x05, 0x03, 0x0f, 0x0f, 0x1c, 0xfe, 0xf6,
  0x16, 0xf6, 0xf0, 0xff, 0x1f, 0x1e, 0x1a, 0x1b, 0x0b, 0x0e, 0x17, 0x28,
  0x24, 0xf6, 0x1f, 0x32, 0xfb, 0x21, 0x29, 0x1f, 0x13, 0x1a, 0x1b, 0x0e,
  0x10, 0x0e, 0xfb, 0xfa, 0x0c, 0xee, 0x13, 0x1d, 0xe6, 0x14, 0x24, 0x0a,
  0xee, 0x03, 0xfa, 0x1c, 0x0a, 0x09, 0xfd, 0x01, 0xfc, 0xfe, 0x03, 0x03,
  0xf7, 0x02, 0x0c, 0x00, 0x0c, 0xf6, 0xe8, 0x01, 0x0c, 0xf9, 0xe1, 0xe4,
  0x07, 0x04, 0xfb, 0xf1, 0xeb, 0x02, 0x0b, 0x17, 0xfd, 0xe9, 0xe7, 0xf9,
  0xf1, 0x02, 0xfb, 0xd6, 0xe4, 0xf6, 0xe2, 0xec, 0x01, 0xe7, 0xf9, 0xf8,
  0xf0, 0xf0, 0x0c, 0xf7, 0xfc, 0x12, 0x00, 0xf4, 0xe8, 0x01, 0xef, 0xe9,
  0x16, 0xf5, 0xf4, 0xe8, 0x05, 0x07, 0x15, 0x04, 0x06, 0x1b, 0xf8, 0x03,
  0x02, 0xf0, 0x06, 0x04, 0xe3, 0x05, 0x0e, 0x01, 0x0f, 0xfe, 0x0c, 0x06,
  0x07, 0x03, 0xfd, 0xeb, 0xf6, 0xec, 0xfb, 0xfe, 0xcc, 0xf1, 0x08, 0xf4,
  0x02, 0x00, 0xf4, 0x02, 0xff, 0xfd, 0xff, 0xf9, 0x01, 0x06, 0xf9, 0x00,
  0xf9, 0xfa, 0xfe, 0xfc, 0xfd, 0x01, 0xde, 0xfa, 0xfd, 0x02, 0x09, 0xe3,
  0xf5, 0xf9, 0xfb, 0xf9, 0xf9, 0xf9, 0xfc, 0xfd, 0x09, 0xf7, 0xf5, 0xf7,
  0x09, 0x09, 0xfb, 0xf4, 0xea, 0x05, 0xef, 0xeb, 0x1b, 0xfa, 0x06, 0xef,
  0xf5, 0xf8, 0x02, 0xf3, 0xf4, 0x08, 0xfe, 0x00, 0xf6, 0x0c, 0xef, 0xf2,
  0x19, 0xe4, 0xe8, 0xf3, 0x12, 0x01, 0x0a, 0xfe, 0x03, 0x05, 0x03, 0xf1,
  0x02, 0x14, 0xff, 0x05, 0xf1, 0xfa, 0x00, 0xed, 0x12, 0x02, 0x00, 0x02,
  0x0f, 0x14, 0xfc, 0xb3, 0xf6, 0xfd, 0x0d, 0xf1, 0xcc, 0xe6, 0x00, 0xe1,
  0x16, 0xed, 0xfb, 0xf1, 0xf3, 0xfc, 0xff, 0x0d, 0xfb, 0x0a, 0xf0, 0xd8,
  0x0e, 0xe9, 0xe6, 0xfd, 0xe6, 0xe1, 0x00, 0xd7, 0xf0, 0xfc, 0x02, 0x0c,
  0xe8, 0xfd, 0xef, 0xe4, 0x09, 0xec, 0xcf, 0xe9, 0x06, 0x09, 0x02, 0x0d,
  0xfd, 0x06, 0xfb, 0x01, 0x0b, 0xff, 0x04, 0x05, 0xfa, 0x08, 0xf6, 0xff,
  0xf6, 0x0a, 0x00, 0xf8, 0xf9, 0xff, 0x12, 0x07, 0xfa, 0xfe, 0xfd, 0x08,
  0x09, 0x14, 0x02, 0x03, 0xfa, 0x08, 0x03, 0x0b, 0x09, 0xf9, 0x15, 0xfd,
  0xf5, 0xfb, 0x05, 0x05, 0x0b, 0x03, 0x0c, 0xfc, 0x0f, 0x1b, 0xd6, 0x15,
  0x12, 0xf2, 0xe3, 0xe5, 0xfa, 0xf7, 0x0e, 0x13, 0x08, 0xee, 0x19, 0xf4,
  0x07, 0xfa, 0x0f, 0x0b, 0xf7, 0x06, 0x0c, 0xf2, 0xe5, 0xf1, 0xf2, 0xe7,
  0xff, 0xee, 0xf1, 0xef, 0xe3, 0xfd, 0xf3, 0xfc, 0xec, 0xfc, 0x01, 0xe7,
  0xef, 0xe3, 0xf3, 0xed, 0xe1, 0xfc, 0xe4, 0xed, 0xfb, 0x0d, 0xfc, 0x08,
  0xfc, 0xff, 0x07, 0x01, 0x02, 0xf7, 0x0a, 0x0d, 0xf5, 0x0e, 0xff, 0x00,
  0xf9, 0x0f, 0xfd, 0x11, 0xfa, 0x03, 0x12, 0x06, 0xf7, 0xfc, 0x0c, 0x0b,
  0xfd, 0x0a, 0x0b, 0xfe, 0xfc, 0x05, 0xfa, 0xf5, 0xfe, 0xfb, 0xff, 0xfc,
  0x17, 0x00, 0xfa, 0x0f, 0xfb, 0xfd, 0xf9, 0x03, 0xfa, 0x09, 0xcf, 0xf3,
  0xfe, 0xf8, 0xf9, 0xf2, 0x07, 0x01, 0x0b, 0x0c, 0xf9, 0x04, 0xfd, 0x0d,
  0xf5, 0x06, 0xfe, 0x0b, 0x0c, 0x02, 0x05, 0xee, 0xf5, 0xe9, 0x11, 0xfe,
  0xf7, 0xfc, 0x07, 0xfa, 0x06, 0x03, 0x05, 0x08, 0x04, 0xf7, 0x0e, 0x06,
  0xfc, 0xed, 0x02, 0xf9, 0xf5, 0x0b, 0xfd, 0x01, 0xfe, 0x0b, 0xf3, 0x08,
  0xf8, 0x06, 0x08, 0xf8, 0xff, 0xff, 0xfb, 0x06, 0xf6, 0x0f, 0xfd, 0x06,
  0xe5, 0x09, 0x06, 0xf4, 0xe6, 0x02, 0x02, 0x1b, 0x0f, 0x0a, 0x06, 0x16,
  0x02, 0x1e, 0xff, 0xfc, 0xf4, 0xed, 0xfb, 0xe0, 0xf3, 0x02, 0xbb, 0x1a,
  0x0d, 0x11, 0x02, 0xfc, 0x33, 0x13, 0xf2, 0x12, 0xf1, 0xf5, 0xf8, 0xfb,
  0x08, 0x07, 0xe4, 0x3a, 0x06, 0xfe, 0x02, 0xff, 0x2f, 0xf5, 0xf4, 0xf9,
  0x06, 0x0b, 0x06, 0x0a, 0x0b, 0xf3, 0x20, 0x05, 0x0f, 0xf8, 0x0a, 0x12,
  0xff, 0x01, 0xfd, 0xf9, 0x01, 0x00, 0xfe, 0xfe, 0xf2, 0x01, 0xff, 0xf1,
  0x0c, 0xf7, 0xf6, 0xf9, 0xf6, 0x08, 0xfd, 0xf8, 0xee, 0x01, 0xfb, 0xff,
  0xf4, 0x02, 0xff, 0xff, 0xf5, 0xf2, 0xff, 0xf7, 0xf6, 0x04, 0xf7, 0xfa,
  0xf7, 0x11, 0x03, 0xf6, 0xf3, 0xf8, 0x1a, 0x01, 0x06, 0xfb, 0xfd, 0x04,
  0xf4, 0x0f, 0x0c, 0x05, 0xf4, 0x02, 0xed, 0xf4, 0xfe, 0xf9, 0x02, 0xf5,
  0x13, 0x0b, 0x03, 0x05, 0x03, 0x0c, 0x00, 0x14, 0xfc, 0x03, 0xfd, 0x06,
  0x08, 0xff, 0xff, 0x00, 0x01, 0x0b, 0x02, 0xfb, 0xee, 0xf5, 0x02, 0xf2,
  0xfc, 0x00, 0xfc, 0x00, 0x09, 0xe4, 0x03, 0x05, 0x02, 0xfb, 0x03, 0x0d,
  0xe9, 0xfe, 0x04, 0x01, 0x03, 0x08, 0xf2, 0x06, 0xfe, 0xf2, 0x1e, 0x04,
  0x02, 0xff, 0x05, 0x06, 0xff, 0x03, 0x09, 0xfd, 0xf6, 0x08, 0xd9, 0x08,
  0x01, 0x04, 0x01, 0x0d, 0x0c, 0x0f, 0xfa, 0xf8, 0x0a, 0x08, 0x0b, 0x00,
  0xf5, 0xf2, 0x0b, 0xf3, 0xf1, 0x0b, 0xfb, 0x18, 0x08, 0x14, 0xfa, 0xf4,
  0x29, 0x0b, 0xea, 0x16, 0xe9, 0xf2, 0xea, 0x00, 0xf6, 0xe2, 0xff, 0xf4,
  0xee, 0xf9, 0xf6, 0xf5, 0x05, 0x02, 0xfb, 0xf9, 0xfb, 0xf8, 0x01, 0x00,
  0xfb, 0xf6, 0x16, 0x01, 0x03, 0xff, 0x01, 0x03, 0x07, 0xfc, 0xf2, 0x05,
  0xfd, 0x00, 0x11, 0xfa, 0xf7, 0x01, 0xf1, 0xf8, 0x0b, 0x06, 0xfb, 0xfc,
  0xf9, 0x0f, 0xfc, 0x02, 0x06, 0xf4, 0xfc, 0x05, 0xfe, 0x01, 0xf5, 0x00,
  0x04, 0x07, 0xfc, 0xfd, 0x03, 0x0a, 0xf6, 0x05, 0xf5, 0xfb, 0xfd, 0xef,
  0xf1, 0x06, 0x05, 0xfe, 0x04, 0xf9, 0xf7, 0x03, 0x09, 0xfc, 0xfb, 0x03,
  0xfb, 0x03, 0x07, 0x00, 0xfc, 0x04, 0x1a, 0x00, 0x00, 0xf2, 0x0a, 0x04,
  0xeb, 0x01, 0x04, 0xee, 0x2f, 0x1c, 0xfb, 0x2d, 0x14, 0xf6, 0x15, 0x0d,
  0x26, 0x0e, 0x1d, 0x32, 0x00, 0x19, 0x2a, 0x2d, 0xfd, 0x0e, 0x05, 0x06,
  0x00, 0x03, 0xef, 0xf2, 0x03, 0xfe, 0x01, 0x0b, 0xfb, 0x06, 0x0d, 0x04,
  0xff, 0x00, 0x02, 0x0f, 0x0d, 0x13, 0xf1, 0x03, 0x06, 0x08, 0x10, 0xfc,
  0xfc, 0xfc, 0x0d, 0x11, 0x05, 0x07, 0xfc, 0xfb, 0xf8, 0xfc, 0xfc, 0xfb,
  0x10, 0x02, 0x05, 0xfa, 0xfa, 0x12, 0x05, 0x1a, 0xf7, 0xe0, 0xe5, 0xf0,
  0xf1, 0xfc, 0xe7, 0xd4, 0xea, 0xe5, 0xe7, 0xe1, 0x03, 0xf0, 0xf1, 0x06,
  0xe5, 0xee, 0x14, 0xd7, 0xe7, 0x05, 0xe6, 0x16, 0xf5, 0xfa, 0xf4, 0xf3,
  0x0a, 0xfa, 0xe5, 0xea, 0x00, 0xfb, 0x14, 0xef, 0xf3, 0x22, 0xf4, 0x10,
  0xfd, 0xfe, 0x0a, 0x00, 0xe9, 0x08, 0x03, 0xf5, 0x0c, 0x09, 0x04, 0x0d,
  0x0c, 0x1a, 0xf6, 0xf4, 0x02, 0xf0, 0x00, 0xfd, 0xd1, 0xec, 0x07, 0xe7,
  0x0c, 0xec, 0xf9, 0xfd, 0xf7, 0x0c, 0xe9, 0xf6, 0x02, 0xfe, 0xf4, 0x00,
  0xfc, 0xf9, 0x06, 0xfd, 0xf9, 0xf9, 0xed, 0xef, 0xe8, 0x03, 0xf8, 0x01,
  0xfc, 0xf4, 0xea, 0xf0, 0xfb, 0xf9, 0xf5, 0xef, 0x09, 0xee, 0xde, 0xf8,
  0xe8, 0x0d, 0xf5, 0xda, 0xea, 0xe4, 0xe6, 0xe6, 0xfd, 0xe6, 0xf4, 0xdb,
  0xd8, 0xf6, 0x2f, 0xef, 0xfd, 0x09, 0x18, 0x10, 0xfc, 0xe3, 0xfd, 0xf4,
  0xe5, 0xf8, 0xf5, 0xf0, 0x0d, 0x02, 0x3a, 0x05, 0x00, 0x0f, 0xfc, 0x11,
  0xf2, 0xe5, 0xfb, 0xfa, 0xe5, 0xf5, 0xff, 0xec, 0x04, 0xfd, 0xff, 0x06,
  0xfc, 0x0a, 0x02, 0x0a, 0xfa, 0xfe, 0xf7, 0x06, 0xf3, 0xff, 0x00, 0xfd,
  0xeb, 0x00, 0xf6, 0x02, 0x00, 0xfe, 0x09, 0x01, 0x06, 0x04, 0xf8, 0xfb,
  0x05, 0x00, 0x02, 0x04, 0xfb, 0xfc, 0xef, 0x01, 0x03, 0xfb, 0xf8, 0xfb,
  0xfc, 0x00, 0x05, 0xfb, 0x0b, 0x05, 0xfb, 0x09, 0x03, 0xfd, 0xfb, 0xfa,
  0xf6, 0x04, 0xfc, 0xe8, 0xfa, 0x05, 0xf4, 0xfc, 0x05, 0xf2, 0xff, 0xf6,
  0xf8, 0x08, 0x08, 0xf6, 0x05, 0x02, 0xff, 0xfe, 0x18, 0x05, 0x11, 0xf2,
  0xf8, 0xf5, 0x07, 0xf3, 0x27, 0x23, 0x33, 0x10, 0x16, 0x1e, 0x10, 0xff,
  0x19, 0xff, 0x21, 0x1f, 0x03, 0x07, 0x1d, 0xf3, 0x1b, 0x0a, 0x0b, 0x11,
  0x08, 0xfe, 0xe9, 0xed, 0xf9, 0xed, 0x0b, 0x05, 0xfc, 0xfb, 0x0c, 0xef,
  0x0d, 0x09, 0xf1, 0x12, 0x09, 0xfe, 0xf7, 0xe7, 0xf8, 0xea, 0x04, 0xfd,
  0x00, 0xe4, 0x06, 0xef, 0xf2, 0xf4, 0x02, 0x08, 0x03, 0xf0, 0xef, 0xec,
  0xf2, 0xf8, 0x02, 0xf8, 0xfa, 0xf7, 0x00, 0xf5, 0xf9, 0xf8, 0x02, 0xfe,
  0xfd, 0xfe, 0x03, 0xf2, 0xfb, 0xfd, 0xf5, 0xf9, 0xeb, 0x06, 0xff, 0xff,
  0xfd, 0xfe, 0xf7, 0xfc, 0x04, 0x02, 0xf3, 0x03, 0xf2, 0xf3, 0x0a, 0xfd,
  0x01, 0x0c, 0xfa, 0x05, 0xff, 0xf7, 0xeb, 0xfd, 0xf5, 0x00, 0xf4, 0xf5,
  0xfb, 0x15, 0xff, 0xf9, 0xfd, 0x04, 0xf9, 0x05, 0xf6, 0xf2, 0x04, 0xf7,
  0xfa, 0x0d, 0xf3, 0x24, 0xf7, 0x10, 0xef, 0xec, 0x16, 0xfb, 0xf5, 0xff,
  0x03, 0x01, 0x1f, 0xf7, 0x05, 0x07, 0x00, 0x3d, 0x02, 0x13, 0x00, 0xf5,
  0x02, 0x09, 0x01, 0x0a, 0xfd, 0x0c, 0x05, 0xfd, 0x04, 0x06, 0x05, 0x03,
  0x09, 0xff, 0x05, 0xff, 0xfd, 0x05, 0xf9, 0x08, 0x12, 0x05, 0x08, 0x03,
  0xfe, 0x08, 0x05, 0x06, 0x04, 0x04, 0xff, 0xfc, 0x18, 0x08, 0xfb, 0x0f,
  0xfc, 0xf8, 0xf8, 0xf4, 0xfe, 0x04, 0xfa, 0x0b, 0x06, 0x18, 0xf8, 0x04,
  0x00, 0x05, 0xf9, 0xfa, 0xef, 0xef, 0xef, 0xee, 0xf4, 0xf8, 0xe5, 0x05,
  0xf6, 0x00, 0xff, 0xf9, 0x20, 0x0d, 0xe9, 0x00, 0xeb, 0xfb, 0xf5, 0xef,
  0xf5, 0xfb, 0x27, 0x0d, 0xf7, 0x03, 0xf3, 0x0c, 0x25, 0x0f, 0xf6, 0xf8,
  0xf8, 0x0b, 0x18, 0xf9, 0x01, 0x16, 0x30, 0x17, 0x0d, 0x06, 0x0b, 0x19,
  0x0f, 0x10, 0x04, 0xfe, 0x0a, 0x20, 0xf8, 0x11, 0x00, 0xf4, 0x13, 0x06,
  0x1b, 0x0f, 0x12, 0x09, 0x1b, 0x08, 0x1a, 0x0d, 0x12, 0xfd, 0xea, 0x0a,
  0xfc, 0x04, 0xf3, 0xf8, 0x0a, 0x08, 0x05, 0x00, 0x10, 0x09, 0xfb, 0x08,
  0xfe, 0xf8, 0x01, 0x00, 0xf6, 0xf7, 0x04, 0x0d, 0x06, 0xfa, 0xff, 0x02,
  0xfa, 0xf1, 0xf9, 0xfd, 0x13, 0xfc, 0x18, 0x05, 0xf9, 0x09, 0xfc, 0x09,
  0xf5, 0xd4, 0xf6, 0xfa, 0x15, 0xea, 0xfd, 0xee, 0x07, 0xfe, 0x09, 0xfe,
  0xf7, 0x0c, 0x06, 0x1a, 0xfc, 0xf1, 0xfa, 0x05, 0x0d, 0x11, 0x01, 0xfe,
  0xf8, 0xfb, 0x14, 0xf7, 0xf1, 0xfa, 0x10, 0x19, 0x06, 0xf7, 0xf4, 0xfc,
  0x07, 0x10, 0xf3, 0xf6, 0x01, 0x13, 0xfb, 0x08, 0x05, 0xf0, 0x12, 0xfa,
  0x0d, 0x0f, 0x00, 0x11, 0x0c, 0x1c, 0x04, 0x1d, 0x1c, 0x0d, 0x17, 0x02,
  0x03, 0x03, 0x01, 0x02, 0x00, 0xfe, 0x00, 0xfa, 0xfe, 0xfd, 0xf3, 0x03,
  0xee, 0x10, 0xf3, 0xf9, 0x07, 0xfe, 0xfb, 0x05, 0xf6, 0x0b, 0xfa, 0xfa,
  0xfe, 0xf4, 0x02, 0x09, 0x31, 0x05, 0x0e, 0x09, 0xf7, 0x12, 0xfc, 0x09,
  0xff, 0xf8, 0xf9, 0x06, 0xff, 0xf9, 0x0f, 0xf3, 0x08, 0x01, 0x1b, 0xfc,
  0xf8, 0x15, 0xfc, 0x0a, 0xf8, 0xec, 0xf6, 0x07, 0xfb, 0xf7, 0x01, 0xf4,
  0x04, 0xfd, 0xf6, 0xff, 0xf8, 0xf2, 0xf8, 0xfb, 0xfb, 0xea, 0xfe, 0x00,
  0xeb, 0xf8, 0x04, 0xed, 0x09, 0xf8, 0xf0, 0xf3, 0xf5, 0xf7, 0xee, 0xfc,
  0x04, 0xf9, 0x00, 0x06, 0xf5, 0x11, 0x06, 0x06, 0x03, 0xf6, 0xf6, 0xf7,
  0xf6, 0x04, 0xfe, 0x04, 0x03, 0x01, 0xf3, 0x00, 0x0f, 0xfe, 0xfe, 0xfb,
  0xfc, 0x0a, 0xff, 0xf6, 0xf3, 0xfb, 0x01, 0x00, 0xfe, 0x07, 0x0e, 0x07,
  0x00, 0xfe, 0xff, 0xfd, 0xfe, 0x06, 0x1d, 0x11, 0x06, 0x16, 0xf2, 0x09,
  0x09, 0x02, 0x16, 0xf4, 0xfb, 0x0e, 0x01, 0x07, 0x19, 0x12, 0x1a, 0x0b,
  0x04, 0x0d, 0xe0, 0x0a, 0x09, 0xfd, 0x0a, 0x0d, 0xf8, 0x25, 0x0b, 0x0b,
  0x03, 0xf5, 0x16, 0x02, 0xf8, 0x07, 0xea, 0x06, 0x03, 0x0e, 0xfe, 0xfe,
  0x01, 0x0b, 0xf4, 0x01, 0x0c, 0xfb, 0xf0, 0xf9, 0x05, 0xf0, 0xe4, 0xfc,
  0xfb, 0x16, 0x07, 0xf6, 0x1a, 0x0e, 0xf8, 0x0a, 0xe2, 0xff, 0x04, 0xf4,
  0xfe, 0x08, 0x02, 0xff, 0x07, 0xfe, 0x00, 0x06, 0xfc, 0x01, 0xf3, 0xf2,
  0x04, 0x08, 0xf6, 0x09, 0x09, 0xef, 0x06, 0xe3, 0xf6, 0x01, 0x0d, 0x03,
  0xf7, 0xf6, 0x08, 0x03, 0xfd, 0xf0, 0xff, 0xeb, 0xe2, 0xe8, 0x02, 0xe6,
  0xda, 0xe4, 0xdb, 0xec, 0xe8, 0xda, 0xd7, 0xdc, 0xf3, 0xec, 0xf1, 0xe8,
  0xde, 0xe9, 0x0b, 0x00, 0xf1, 0xee, 0xec, 0xf5, 0xf1, 0x06, 0xf0, 0xf5,
  0xf4, 0x0e, 0x03, 0xfb, 0xea, 0x0a, 0x10, 0x02, 0xfa, 0xde, 0xf7, 0x0b,
  0xe1, 0x08, 0xfc, 0xf5, 0xf9, 0x06, 0xe8, 0xf7, 0xf0, 0xf6, 0xfb, 0xe7,
  0xe8, 0xfd, 0xf4, 0x0a, 0xf4, 0x03, 0xf8, 0xfd, 0xe1, 0xf9, 0x18, 0xec,
  0xf4, 0xfd, 0xff, 0x22, 0x07, 0x03, 0xfa, 0xf5, 0xf0, 0xfd, 0xf9, 0xf0,
  0x0b, 0x09, 0x08, 0x06, 0xf7, 0xfe, 0xf8, 0xf3, 0x08, 0xff, 0x06, 0x03,
  0xfa, 0x00, 0x06, 0xff, 0xff, 0xfa, 0xc6, 0xef, 0xf5, 0xe1, 0x02, 0xf9,
  0x07, 0xf3, 0xf7, 0x05, 0x08, 0x0a, 0xfa, 0x11, 0x16, 0x03, 0x0d, 0xff,
  0xff, 0xfa, 0x05, 0x02, 0x00, 0xf9, 0x02, 0x04, 0x12, 0xfd, 0x02, 0x03,
  0x1d, 0xf7, 0x20, 0x01, 0x03, 0x0c, 0x0c, 0x08, 0xef, 0xf3, 0x07, 0xf9,
  0x08, 0x06, 0x00, 0xfa, 0xff, 0xfa, 0x0c, 0x00, 0x01, 0x16, 0x1b, 0x1a,
  0x01, 0x02, 0xfd, 0xfd, 0x00, 0x0e, 0xfb, 0x0d, 0x01, 0xfd, 0x0b, 0x0d,
  0x00, 0x09, 0xf7, 0x0f, 0xf3, 0x0b, 0x00, 0xff, 0x17, 0x03, 0x06, 0x0c,
  0xf1, 0xf9, 0x09, 0xfe, 0xf5, 0xfd, 0x0b, 0x0f, 0x02, 0x00, 0xf6, 0x05,
  0x0e, 0x09, 0xf0, 0xfc, 0x09, 0xea, 0xd2, 0xee, 0xe3, 0xee, 0xf0, 0x04,
  0xe8, 0xf4, 0xec, 0xf4, 0x00, 0x08, 0xf2, 0x00, 0xf2, 0xf4, 0x01, 0xf6,
  0xee, 0x08, 0x0e, 0x04, 0xfc, 0x09, 0xf7, 0xff, 0x0d, 0xf5, 0xf3, 0xfa,
  0xe1, 0xe4, 0xfb, 0xe7, 0xe5, 0x03, 0xfd, 0x02, 0xf9, 0x09, 0xe8, 0xeb,
  0x08, 0xf8, 0xea, 0xfe, 0x04, 0xfc, 0xec, 0xf0, 0xf7, 0xfb, 0xf9, 0x01,
  0xfd, 0xfc, 0xec, 0xfa, 0x02, 0xf9, 0xfa, 0xf3, 0xf1, 0xf7, 0x0e, 0x04,
  0x00, 0xfe, 0xf2, 0xfa, 0xfc, 0xf8, 0xf8, 0xef, 0xfe, 0xfd, 0xf1, 0x02,
  0x00, 0x07, 0x02, 0x04, 0x0a, 0x0d, 0x09, 0xf6, 0xfc, 0x07, 0xf9, 0xf9,
  0xfe, 0xf4, 0x00, 0x00, 0x0b, 0xfe, 0x08, 0xfa, 0x00, 0x08, 0x09, 0x0d,
  0xfa, 0xde, 0xf9, 0x00, 0xec, 0x07, 0x01, 0xf8, 0x10, 0x07, 0x00, 0x08,
  0x12, 0xfd, 0xe7, 0xe0, 0xfa, 0xfc, 0x17, 0xff, 0xe7, 0xfd, 0x07, 0x0f,
  0xff, 0x08, 0x0c, 0x0f, 0xfc, 0x00, 0x03, 0xf7, 0x09, 0x00, 0x07, 0xf7,
  0xe6, 0xed, 0x01, 0xf8, 0xf7, 0x03, 0xf7, 0x08, 0x06, 0xff, 0x15, 0xf4,
  0xf6, 0x04, 0xff, 0x06, 0xe4, 0xf3, 0x03, 0xf5, 0x0e, 0x0a, 0xf5, 0x0f,
  0x06, 0x00, 0x16, 0xed, 0xfc, 0xfd, 0x00, 0x02, 0xe9, 0xf1, 0xff, 0xf0,
  0x02, 0x0a, 0x03, 0x0a, 0x03, 0x07, 0x01, 0xf3, 0x00, 0xf2, 0x04, 0xff,
  0x07, 0x01, 0x05, 0xfb, 0x30, 0x13, 0x19, 0x12, 0x10, 0x2d, 0x00, 0x1b,
  0x06, 0xfa, 0x10, 0x0f, 0xf0, 0x04, 0x13, 0x01, 0x04, 0x11, 0x1b, 0x0e,
  0x05, 0x19, 0x03, 0x0b, 0x0c, 0xfe, 0x04, 0x07, 0xde, 0xfc, 0x0d, 0x0b,
  0x04, 0x06, 0x07, 0x08, 0x01, 0x0c, 0x0d, 0xec, 0xfb, 0xe2, 0xf9, 0xff,
  0xe2, 0x08, 0x09, 0xf9, 0xff, 0x0b, 0x09, 0x16, 0x11, 0xfe, 0x08, 0xf7,
  0xec, 0xf9, 0x07, 0x02, 0xe7, 0x0f, 0x0a, 0x03, 0x03, 0x04, 0x0e, 0x03,
  0xfe, 0xff, 0x00, 0x07, 0xfd, 0xfb, 0xff, 0x00, 0x0e, 0x14, 0x0e, 0x12,
  0xfc, 0x03, 0x04, 0x03, 0x01, 0x04, 0xfe, 0xf7, 0xfa, 0x0b, 0x11, 0x04,
  0xf1, 0xf7, 0x07, 0x09, 0x0f, 0x03, 0x09, 0xfa, 0xfc, 0xfd, 0x0e, 0xfb,
  0x0d, 0x04, 0x03, 0x07, 0xdb, 0x06, 0x04, 0x09, 0x28, 0xff, 0x05, 0xfb,
  0xfc, 0x09, 0x07, 0xe3, 0xfe, 0xf7, 0xfa, 0x01, 0x0a, 0xf6, 0x02, 0xf8,
  0xff, 0xfb, 0xe2, 0xf7, 0xfd, 0xef, 0x02, 0x04, 0xed, 0x00, 0xfc, 0xfb,
  0x0b, 0xf3, 0x04, 0x03, 0xfd, 0x01, 0xd5, 0x10, 0x03, 0xf2, 0x19, 0x03,
  0xff, 0x00, 0x06, 0xf3, 0xed, 0xff, 0x04, 0x0c, 0xf7, 0xf9, 0x04, 0xf3,
  0xf3, 0x04, 0xfd, 0x02, 0xf5, 0x03, 0xf6, 0xf7, 0x0d, 0xfd, 0xf7, 0xfd,
  0xec, 0x04, 0x0a, 0xfc, 0xf2, 0x06, 0x04, 0x0c, 0x0d, 0x0b, 0x07, 0x0e,
  0x07, 0x0a, 0x04, 0x07, 0xfd, 0x10, 0xfe, 0x11, 0x0e, 0xf4, 0x06, 0x00,
  0x04, 0xf8, 0x0b, 0x0e, 0xfb, 0x11, 0x0d, 0x07, 0x1e, 0x09, 0xd1, 0x0e,
  0x0e, 0x0d, 0xff, 0xea, 0xf9, 0x0a, 0x06, 0xff, 0x11, 0xf7, 0x05, 0xe7,
  0xd8, 0xe9, 0x0c, 0x02, 0xef, 0x0b, 0xf8, 0xfa, 0xf0, 0x09, 0xee, 0xe2,
  0x09, 0xe7, 0xe7, 0xed, 0x14, 0xf4, 0xf5, 0xee, 0xf0, 0x00, 0xe9, 0x0b,
  0x0d, 0x0f, 0xf6, 0xfb, 0x16, 0x0c, 0xe8, 0x0c, 0xe9, 0xf6, 0x0a, 0xf8,
  0xed, 0x05, 0x10, 0xfb, 0xef, 0xe7, 0xef, 0xfa, 0x03, 0xff, 0xfa, 0x03,
  0xee, 0x08, 0x11, 0x10, 0x12, 0x06, 0x0e, 0x0b, 0x05, 0x03, 0x1a, 0x07,
  0xfb, 0x04, 0x0a, 0x04, 0xf0, 0xfa, 0xf8, 0xf2, 0xf3, 0xf5, 0xf8, 0xfe,
  0x08, 0xf9, 0xf2, 0x06, 0xf2, 0xfc, 0xf5, 0xf8, 0x01, 0x02, 0xf5, 0xfb,
  0xfa, 0xe7, 0xf3, 0xe3, 0x04, 0xf5, 0x02, 0x04, 0xeb, 0xe6, 0xfb, 0x00,
  0x03, 0xfd, 0x08, 0xfc, 0xf1, 0x07, 0x12, 0xe6, 0xfa, 0xec, 0xf3, 0x03,
  0xdf, 0xf2, 0xfb, 0xf5, 0xe7, 0xfa, 0xfc, 0xf5, 0xf8, 0xf9, 0x04, 0xf4,
  0xf4, 0xf2, 0x03, 0xff, 0xf2, 0xfd, 0xed, 0xef, 0xeb, 0x0e, 0x0f, 0x05,
  0xfd, 0x01, 0x07, 0x10, 0x01, 0xfd, 0x07, 0x16, 0xea, 0x0d, 0xfc, 0xff,
  0x03, 0x0b, 0x17, 0x09, 0x11, 0x01, 0x0c, 0x05, 0x10, 0x08, 0x18, 0x13,
  0x04, 0x16, 0x0d, 0x18, 0xfc, 0xfb, 0x0d, 0xfa, 0xfb, 0x22, 0xe8, 0x15,
  0x10, 0xfc, 0xfe, 0x03, 0x14, 0x01, 0x01, 0xff, 0x01, 0x09, 0x0e, 0xfc,
  0x01, 0x0e, 0xfd, 0x27, 0x14, 0x07, 0x08, 0x0b, 0xf7, 0xe8, 0xfd, 0xf7,
  0x13, 0x04, 0x01, 0x04, 0xfa, 0x01, 0x1b, 0xe5, 0x0c, 0xda, 0xfa, 0x17,
  0xc9, 0x08, 0x16, 0xfa, 0xf2, 0xf2, 0xf9, 0xe7, 0xe9, 0x01, 0xf4, 0xee,
  0xf8, 0xcc, 0xf3, 0xff, 0xd1, 0xfc, 0xf2, 0xee, 0xea, 0xf5, 0x0f, 0x00,
  0xf5, 0x03, 0xfb, 0x08, 0xfa, 0xfa, 0xff, 0x01, 0xfd, 0x02, 0xf3, 0xfc,
  0x01, 0x11, 0x10, 0x11, 0xf2, 0x07, 0x11, 0x11, 0x04, 0x03, 0xfc, 0x0e,
  0x05, 0x11, 0x13, 0x1a, 0x16, 0xfd, 0xf6, 0xf9, 0xf8, 0xfc, 0xfb, 0xf9,
  0x0d, 0x0f, 0xf8, 0x02, 0xfb, 0x0e, 0x00, 0x0a, 0xe4, 0xf8, 0x07, 0xfc,
  0x00, 0xfd, 0xf6, 0x0a, 0xee, 0xfd, 0x00, 0xfd, 0x0f, 0x01, 0xfb, 0x02,
  0xff, 0x05, 0x05, 0xff, 0x04, 0xff, 0x0a, 0x18, 0x05, 0x07, 0x07, 0x00,
  0x13, 0x0b, 0xff, 0x10, 0xf5, 0x06, 0xfd, 0x00, 0xfa, 0xf9, 0x17, 0x0b,
  0x07, 0x04, 0xfb, 0xfc, 0x03, 0xff, 0xff, 0x0c, 0x0a, 0x12, 0x11, 0x09,
  0x04, 0xff, 0x13, 0x0d, 0xfc, 0x10, 0x0e, 0x10, 0x10, 0x03, 0x0f, 0x0b,
  0x06, 0xef, 0x00, 0xe8, 0xf5, 0x05, 0xf0, 0x09, 0xef, 0x07, 0xf5, 0xee,
  0x2d, 0xff, 0xe2, 0x0e, 0x02, 0xea, 0xf1, 0xe2, 0xe5, 0xf5, 0xf8, 0xf7,
  0xe6, 0xf8, 0xe1, 0xe7, 0xff, 0x11, 0xe9, 0x03, 0xde, 0xf7, 0x04, 0xf0,
  0xea, 0x0a, 0x01, 0xfc, 0xed, 0xff, 0xf9, 0xe9, 0x01, 0xf6, 0xe3, 0xe8,
  0xf5, 0xf1, 0xfe, 0xf7, 0xf0, 0x16, 0x06, 0x0b, 0xff, 0x00, 0xeb, 0x04,
  0x01, 0x0c, 0xfc, 0xfe, 0xf5, 0xef, 0x0a, 0xe7, 0xf2, 0x01, 0xfe, 0x08,
  0xee, 0xfa, 0xef, 0xf7, 0xf8, 0xf7, 0xed, 0xf6, 0x06, 0xf5, 0xfe, 0x00,
  0x01, 0x01, 0xf4, 0xfe, 0xfc, 0x0b, 0xf7, 0xf9, 0x0a, 0xf3, 0xff, 0xf4,
  0x03, 0xe8, 0x0a, 0xe6, 0xf5, 0x03, 0xf2, 0xe4, 0xe9, 0xf1, 0xe4, 0xe9,
  0xff, 0xf0, 0xe4, 0xe7, 0x05, 0x0f, 0x0e, 0x07, 0xfe, 0xff, 0x19, 0x03,
  0x08, 0xd2, 0x09, 0x26, 0xd6, 0x15, 0x13, 0xf6, 0xfe, 0x1a, 0xff, 0x0a,
  0x0d, 0x08, 0x1b, 0xf3, 0x10, 0xec, 0x11, 0x19, 0xe1, 0x13, 0x17, 0x0e,
  0x04, 0x0b, 0xec, 0x15, 0x12, 0xfb, 0xfe, 0xf8, 0x05, 0xff, 0x12, 0x0e,
  0xf4, 0x06, 0x17, 0x09, 0x02, 0x01, 0xff, 0x06, 0x0c, 0xfb, 0xfc, 0xec,
  0xf8, 0xf5, 0x0c, 0xfa, 0xf9, 0xf3, 0x10, 0xfe, 0xfe, 0xfd, 0x06, 0x0b,
  0x07, 0x06, 0x01, 0xf1, 0xf7, 0xf8, 0xfd, 0xf2, 0xf3, 0xf2, 0xf7, 0xfb,
  0x0c, 0xfe, 0x04, 0xff, 0x01, 0x00, 0x00, 0xe8, 0xf3, 0xfb, 0xf7, 0xeb,
  0x02, 0xf5, 0xf5, 0xef, 0xff, 0x22, 0x18, 0x1f, 0x39, 0x23, 0xf3, 0x0f,
  0x10, 0x00, 0x29, 0x1e, 0x00, 0x10, 0x2d, 0x0d, 0x0c, 0x0a, 0x01, 0x1c,
  0x16, 0xfe, 0xfe, 0x08, 0x0c, 0x14, 0x14, 0x00, 0xfa, 0x09, 0x12, 0x0d,
  0x03, 0x02, 0xff, 0x0b, 0x00, 0x01, 0xfe, 0x11, 0x0d, 0x14, 0xfc, 0xff,
  0x07, 0x0e, 0x09, 0x0b, 0x0c, 0xfd, 0xf2, 0x02, 0x08, 0x02, 0xf9, 0xec,
  0x02, 0x0e, 0x01, 0xf7, 0x06, 0xf8, 0xf9, 0xfb, 0x00, 0xfa, 0x0b, 0x01,
  0x00, 0xfd, 0x04, 0xfd, 0x05, 0x0b, 0xfc, 0xfa, 0x03, 0xe3, 0xfd, 0xf8,
  0x0c, 0xf5, 0x0f, 0xf5, 0x00, 0xf9, 0xf7, 0xed, 0xeb, 0xfb, 0xf2, 0xec,
  0x18, 0xe6, 0xe7, 0x04, 0xf9, 0xfe, 0xf2, 0xf8, 0x04, 0x01, 0xf2, 0xfb,
  0x02, 0x0f, 0x02, 0xfc, 0x16, 0x09, 0xfc, 0x09, 0xc4, 0xff, 0xf7, 0xfa,
  0x02, 0xff, 0xf8, 0x05, 0x05, 0x0a, 0x03, 0xfd, 0xf2, 0xf9, 0xf9, 0x02,
  0x06, 0x00, 0x26, 0x03, 0x05, 0x0d, 0xf7, 0xf4, 0x05, 0x04, 0x06, 0xfe,
  0xee, 0xfe, 0x02, 0xfb, 0x0a, 0x0a, 0x0b, 0x05, 0xfe, 0x01, 0xf6, 0x09,
  0xf2, 0xfd, 0xff, 0xf8, 0x04, 0xf4, 0xfc, 0xe9, 0xfe, 0xf9, 0xf8, 0xff,
  0xfd, 0x02, 0xfa, 0x05, 0xfc, 0xff, 0x00, 0xff, 0x01, 0xf5, 0xfb, 0xfc,
  0xfb, 0xf6, 0xfd, 0xef, 0xe8, 0xfb, 0xf9, 0xfb, 0xe8, 0x01, 0xfb, 0xec,
  0x03, 0xfe, 0xf7, 0xf9, 0xd6, 0xdf, 0xef, 0xe2, 0xef, 0xf2, 0xfe, 0xfc,
  0xf9, 0x13, 0xe8, 0xe3, 0x1e, 0xf8, 0xe5, 0x02, 0xb7, 0xf8, 0xfa, 0xf4,
  0x01, 0xf3, 0x0e, 0x06, 0x03, 0xfd, 0x00, 0x01, 0xeb, 0x02, 0xf3, 0xff,
  0x09, 0x08, 0x0d, 0x05, 0x06, 0x10, 0x17, 0x05, 0x0d, 0x02, 0x0b, 0x0c,
  0xf1, 0x13, 0x08, 0x15, 0x11, 0x04, 0x0a, 0x10, 0x0a, 0x06, 0x07, 0xfb,
  0x07, 0x09, 0x0c, 0xfe, 0xf9, 0x09, 0x07, 0x12, 0x0b, 0xf3, 0x0e, 0xeb,
  0xf8, 0x07, 0xfa, 0x02, 0x07, 0x0c, 0x05, 0xfd, 0x05, 0x01, 0xf7, 0x0f,
  0xee, 0xff, 0xfc, 0xf2, 0x02, 0xfd, 0x06, 0x07, 0x04, 0xdf, 0xf2, 0xf9,
  0xf5, 0xff, 0xf1, 0xed, 0xf9, 0x09, 0x05, 0x0e, 0x0d, 0x01, 0x1b, 0x08,
  0x06, 0xf4, 0x0e, 0x08, 0xf0, 0x0f, 0x11, 0xff, 0xfb, 0x10, 0xf7, 0x03,
  0x02, 0xee, 0x15, 0x01, 0x0a, 0xfc, 0x0c, 0x0f, 0x18, 0x1c, 0x09, 0x11,
  0xfc, 0xfb, 0xde, 0x01, 0xfe, 0xf6, 0xff, 0xf8, 0xff, 0x12, 0xf2, 0xf9,
  0x2f, 0x03, 0x00, 0x08, 0xfe, 0xfe, 0x0b, 0xfb, 0xf5, 0xf5, 0x07, 0x13,
  0xf4, 0x03, 0xfd, 0x0f, 0x13, 0x16, 0x03, 0x18, 0xed, 0x07, 0x06, 0xf1,
  0xea, 0x06, 0x06, 0x06, 0xf9, 0xdd, 0xfe, 0x05, 0xe2, 0x0e, 0xfd, 0xf7,
  0x06, 0x05, 0x00, 0xfb, 0xfc, 0x02, 0x04, 0x01, 0x09, 0xfc, 0x02, 0x01,
  0x04, 0x0b, 0x00, 0x06, 0xff, 0x0a, 0xf7, 0x0b, 0x03, 0xe5, 0x1a, 0xf1,
  0x05, 0x12, 0xfd, 0x01, 0xf7, 0xf7, 0x07, 0xfa, 0xfd, 0x00, 0xff, 0xfc,
  0xfd, 0xf9, 0xfe, 0xe3, 0xfc, 0xef, 0x01, 0x00, 0xe5, 0x0f, 0x05, 0x03,
  0xff, 0xe4, 0xfa, 0x09, 0x09, 0x17, 0xd4, 0xf8, 0xee, 0x02, 0xfc, 0xe3,
  0xf6, 0xdf, 0xf8, 0xf1, 0x01, 0xed, 0x14, 0xeb, 0xe9, 0x08, 0xf6, 0x1a,
  0xf9, 0xfa, 0xf4, 0xff, 0xfd, 0x07, 0xf6, 0x00, 0x02, 0x07, 0x0b, 0x08,
  0xf2, 0x06, 0x0e, 0x0b, 0x05, 0xf3, 0x00, 0x12, 0x01, 0x07, 0x07, 0xfc,
  0x05, 0xf3, 0xfb, 0xf5, 0xf8, 0x02, 0xfe, 0xf9, 0xfc, 0xff, 0x02, 0xf4,
  0x0c, 0x01, 0xf2, 0x04, 0xf1, 0xfb, 0x0a, 0xec, 0xfb, 0x0e, 0xf3, 0x09,
  0xe9, 0xf0, 0xf2, 0xf8, 0xf8, 0xf7, 0xf7, 0xee, 0xe8, 0xfa, 0x16, 0xf9,
  0xfc, 0xfc, 0x0c, 0x00, 0xf5, 0xf3, 0xfd, 0xff, 0xc9, 0xe2, 0xf4, 0xf5,
  0x20, 0x0a, 0x1e, 0xf7, 0xfc, 0x0b, 0x03, 0xda, 0xfc, 0x07, 0xfc, 0xf7,
  0xff, 0xf8, 0xfe, 0x03, 0xfc, 0xee, 0xfb, 0x00, 0xfd, 0x0c, 0xfd, 0xf5,
  0xeb, 0x05, 0xfa, 0xe0, 0x01, 0xdb, 0xf2, 0xe3, 0x04, 0x01, 0xee, 0xfa,
  0xfb, 0xfb, 0xea, 0x0b, 0x01, 0xff, 0xfb, 0xfe, 0x06, 0x00, 0xea, 0xf7,
  0xf8, 0xfd, 0xf4, 0xf4, 0xfb, 0xf8, 0xfe, 0x02, 0xf1, 0xf2, 0xf7, 0xfc,
  0x06, 0x19, 0xf5, 0x04, 0xf7, 0xf4, 0x00, 0x0d, 0x04, 0x0b, 0x03, 0xec,
  0xe6, 0xf6, 0xf4, 0xea, 0xfc, 0xf0, 0x01, 0xf2, 0xdf, 0xfa, 0x0f, 0x0a,
  0x07, 0x00, 0x0e, 0xfd, 0x07, 0x03, 0xfa, 0x01, 0xed, 0xe4, 0xf5, 0xe8,
  0x0e, 0x09, 0x11, 0x03, 0xf8, 0x22, 0x1e, 0xf3, 0x05, 0xfa, 0xfe, 0x10,
  0xf4, 0xfb, 0x0e, 0x05, 0x06, 0x09, 0xfb, 0xfe, 0x05, 0x02, 0x03, 0xea,
  0xf5, 0x01, 0x09, 0x04, 0xe6, 0xf3, 0x03, 0xf7, 0xf2, 0x06, 0x09, 0xf9,
  0x06, 0x0b, 0xfa, 0xf7, 0xee, 0xea, 0x09, 0xfe, 0xf1, 0x03, 0xfb, 0x04,
  0xfc, 0x0f, 0xf2, 0x03, 0x06, 0x07, 0x12, 0x03, 0x07, 0xe8, 0xff, 0x0d,
  0xe1, 0xfe, 0x06, 0x01, 0xfb, 0x06, 0xf6, 0x08, 0x0b, 0x03, 0x19, 0xf6,
  0x0e, 0x05, 0x05, 0x0b, 0xd2, 0x1a, 0x10, 0x11, 0xf0, 0x03, 0xf1, 0x02,
  0x03, 0xf7, 0x0f, 0xf7, 0x10, 0x09, 0x08, 0x03, 0x17, 0x07, 0x0b, 0x16,
  0xfa, 0xfb, 0xea, 0xfe, 0x04, 0xf5, 0xef, 0xf4, 0x14, 0x0b, 0x02, 0x08,
  0x0a, 0x1f, 0x01, 0x10, 0x09, 0xfa, 0x14, 0x0e, 0x08, 0xff, 0xfb, 0x03,
  0xfa, 0x05, 0x0b, 0x06, 0x0a, 0x0a, 0x11, 0x05, 0xf6, 0x0c, 0x06, 0x08,
  0xff, 0xf9, 0x06, 0x06, 0x0d, 0x02, 0xfd, 0x00, 0xf4, 0x00, 0x09, 0xf9,
  0x05, 0x14, 0x07, 0x09, 0xfb, 0x05, 0xfe, 0x0b, 0x00, 0xe8, 0x05, 0x00,
  0xfd, 0x1a, 0x09, 0x13, 0xff, 0x09, 0xf7, 0x0e, 0x0f, 0xf0, 0xff, 0xfd,
  0xff, 0x0e, 0x11, 0x02, 0x1d, 0x16, 0x08, 0x13, 0x08, 0xfe, 0xff, 0xfb,
  0x02, 0xfb, 0xf9, 0xfb, 0x05, 0x08, 0x01, 0xf9, 0x27, 0x06, 0x05, 0x00,
  0x09, 0x01, 0x06, 0x0a, 0x01, 0x19, 0xfe, 0x08, 0xfb, 0x03, 0xfc, 0xf9,
  0x0e, 0x02, 0x0b, 0xfb, 0x07, 0xfc, 0x00, 0x03, 0xf2, 0x15, 0xf8, 0x11,
  0xf4, 0xfc, 0xf7, 0x02, 0x0c, 0x0b, 0xfe, 0x01, 0xfb, 0x08, 0x04, 0xf5,
  0x00, 0xfd, 0x09, 0x08, 0xf5, 0xf5, 0xfc, 0x07, 0x09, 0x03, 0x02, 0xf8,
  0xea, 0x0b, 0x08, 0xff, 0x03, 0x02, 0x06, 0x01, 0xfe, 0x03, 0xfe, 0x0e,
  0xef, 0x0c, 0x03, 0xf7, 0x03, 0xff, 0x0f, 0xee, 0xf0, 0x0b, 0x02, 0x07,
  0xf4, 0xfd, 0xf6, 0x01, 0xf5, 0xf8, 0xfc, 0xf4, 0xf9, 0xfc, 0x0f, 0x00,
  0xf9, 0xfd, 0x08, 0x06, 0xfd, 0xf8, 0xf5, 0xff, 0x06, 0xfe, 0xf6, 0xff,
  0x12, 0x0c, 0x05, 0xf5, 0xfb, 0xfc, 0x12, 0xfa, 0xf7, 0xf8, 0x05, 0x02,
  0x15, 0x05, 0x05, 0x13, 0x03, 0xfd, 0xfd, 0x0c, 0x02, 0xfd, 0x13, 0x00,
  0xf6, 0x02, 0x06, 0xeb, 0xf5, 0xef, 0xf9, 0x05, 0x00, 0x00, 0xed, 0x08,
  0x09, 0xfb, 0xff, 0x01, 0xf8, 0x02, 0xfb, 0xfc, 0x07, 0xf8, 0xfe, 0xf8,
  0xf1, 0xfb, 0xfe, 0x03, 0xf1, 0x04, 0x04, 0x0c, 0xf0, 0x09, 0xf1, 0xfb,
  0x07, 0xfc, 0xf8, 0x05, 0x0a, 0x0c, 0x04, 0x17, 0x05, 0xfa, 0xff, 0xdd,
  0xf4, 0xd4, 0xfe, 0x07, 0xd2, 0xff, 0x19, 0xef, 0xf2, 0xfc, 0x04, 0xf8,
  0xfd, 0xf8, 0x09, 0xea, 0xee, 0x02, 0xf3, 0xfa, 0x03, 0xe6, 0xf7, 0xd3,
  0xfa, 0xef, 0x0b, 0xf3, 0xf2, 0x0a, 0xf1, 0xf0, 0xf7, 0xf6, 0xef, 0xf9,
  0xfd, 0xf8, 0xfe, 0xed, 0xf7, 0xec, 0xf9, 0xe7, 0xeb, 0xff, 0xf7, 0xf7,
  0xfd, 0xfd, 0xef, 0xf1, 0xf5, 0xec, 0xe2, 0xe9, 0x00, 0x04, 0xf6, 0xfd,
  0xfe, 0xfd, 0xfc, 0xf7, 0x02, 0x03, 0x04, 0x03, 0xf3, 0xff, 0xf4, 0xfd,
  0x0e, 0xf6, 0xfc, 0x04, 0x01, 0xf6, 0xf8, 0xf4, 0x08, 0x03, 0x07, 0xf8,
  0x09, 0x00, 0xf7, 0xfc, 0xf9, 0xfc, 0xf8, 0xf9, 0xf6, 0xfb, 0xfb, 0x03,
  0x19, 0xf8, 0xff, 0x0c, 0xe9, 0x1a, 0x00, 0x07, 0xf9, 0x06, 0xfc, 0x02,
  0xfb, 0x07, 0xfc, 0xf3, 0x02, 0xfb, 0x04, 0x02, 0xf2, 0x0b, 0x08, 0x01,
  0xff, 0x05, 0xf3, 0x01, 0x02, 0xed, 0xfa, 0xf5, 0x0a, 0xff, 0x04, 0x10,
  0x00, 0x17, 0x07, 0x0d, 0xfb, 0x0b, 0x09, 0x13, 0x11, 0x09, 0x07, 0x00,
  0x09, 0xf3, 0x0d, 0x00, 0xee, 0xfd, 0x0d, 0xfc, 0x13, 0x0d, 0xf2, 0x05,
  0x13, 0xf2, 0xff, 0xec, 0x03, 0xf0, 0xf6, 0xfb, 0xe8, 0x02, 0x0a, 0x06,
  0x0e, 0x07, 0x0d, 0xf5, 0xf6, 0x08, 0xf8, 0x00, 0xf5, 0xfa, 0x03, 0x02,
  0xf9, 0xf3, 0xfa, 0xf3, 0x1e, 0x04, 0x06, 0x1b, 0x19, 0x23, 0xec, 0x0f,
  0xfd, 0xff, 0x18, 0x08, 0x0d, 0x0d, 0x0f, 0x0a, 0x05, 0x07, 0x13, 0x09,
  0x0a, 0x11, 0x09, 0x2d, 0x1c, 0x13, 0x01, 0x0c, 0x15, 0xfe, 0xfd, 0x0f,
  0x0b, 0x09, 0xf7, 0x04, 0xfa, 0xfb, 0x21, 0x0a, 0x0b, 0x05, 0xfc, 0x11,
  0xff, 0x10, 0x0a, 0x0f, 0x0d, 0xfd, 0xf7, 0xf8, 0x05, 0x04, 0xea, 0x00,
  0x02, 0x11, 0x02, 0xff, 0x08, 0xfe, 0xfe, 0x01, 0x00, 0xf9, 0xdd, 0x02,
  0x01, 0x00, 0xe7, 0x09, 0xf8, 0x0a, 0xfb, 0xf2, 0x27, 0xf5, 0xfe, 0x04,
  0x01, 0xf7, 0x10, 0xf4, 0xed, 0x02, 0x00, 0x04, 0xfc, 0xf8, 0xf6, 0x00,
  0x18, 0xf8, 0xf5, 0xfc, 0xf5, 0x03, 0xf7, 0x05, 0x03, 0xf1, 0xf2, 0xfd,
  0xff, 0x0b, 0x00, 0xfd, 0x1b, 0x07, 0x00, 0xf7, 0xd9, 0xff, 0xee, 0xfb,
  0xfd, 0xef, 0xf8, 0x16, 0xf5, 0xfb, 0xfa, 0xff, 0xf9, 0x0a, 0xf4, 0x02,
  0xf8, 0x05, 0x0e, 0x01, 0x02, 0xf8, 0x01, 0x0c, 0x0f, 0x05, 0x06, 0x0b,
  0xfe, 0x1b, 0xfb, 0xfa, 0xf5, 0x00, 0x15, 0x01, 0x02, 0x14, 0x08, 0x18,
  0x03, 0x0a, 0x09, 0xfe, 0x0f, 0x01, 0xfe, 0x00, 0x08, 0x02, 0xf6, 0x00,
  0x09, 0x00, 0x07, 0xee, 0xff, 0xf9, 0xfd, 0x13, 0x03, 0x02, 0x0e, 0x15,
  0x0e, 0xed, 0xff, 0xff, 0x04, 0x0f, 0xf3, 0xf5, 0xea, 0xfe, 0x00, 0xe3,
  0x02, 0xec, 0xfa, 0xfb, 0xf2, 0xf6, 0x05, 0xef, 0xf7, 0x08, 0xf7, 0x07,
  0xfa, 0x06, 0xf5, 0xf6, 0x09, 0x05, 0xed, 0x02, 0xde, 0xf8, 0xfd, 0xf6,
  0xf7, 0xea, 0x04, 0x0f, 0x05, 0xfc, 0x00, 0xfa, 0xfc, 0x03, 0xf7, 0x03,
  0xf4, 0xf0, 0xfc, 0xed, 0xf4, 0x07, 0xfe, 0x09, 0xfc, 0xed, 0xf6, 0x0a,
  0xe7, 0x0d, 0xf9, 0xf7, 0xe9, 0x06, 0x0c, 0xfa, 0xf6, 0x09, 0x05, 0xf2,
  0xfc, 0xed, 0x0b, 0x11, 0xe9, 0x01, 0x00, 0xf3, 0x00, 0xf0, 0xf2, 0x01,
  0x0b, 0x0c, 0xe0, 0xe5, 0xf6, 0xfb, 0xf3, 0xf5, 0x06, 0xf7, 0xf2, 0xef,
  0x12, 0xff, 0x03, 0x07, 0x16, 0x10, 0xf7, 0xeb, 0xf0, 0xff, 0xe6, 0xed,
  0x04, 0xdd, 0x08, 0xd8, 0x13, 0x0f, 0x08, 0x14, 0x0e, 0x05, 0x25, 0x02,
  0x04, 0xfb, 0x1c, 0x0c, 0x05, 0x06, 0x16, 0x07, 0xf1, 0x0b, 0x02, 0x08,
  0x04, 0x0e, 0x1f, 0x11, 0xf7, 0x09, 0x02, 0x09, 0x09, 0x15, 0x06, 0x0c,
  0x08, 0x02, 0x04, 0x04, 0xfd, 0x04, 0x0a, 0x17, 0x06, 0x06, 0xf9, 0x04,
  0xfc, 0x09, 0x06, 0x12, 0xe4, 0x0e, 0x0b, 0xfb, 0xff, 0x14, 0xf7, 0xfd,
  0x11, 0x09, 0x0f, 0x05, 0xf8, 0x01, 0x00, 0x09, 0x17, 0x06, 0x0b, 0x07,
  0x1a, 0x0e, 0xfb, 0xed, 0x04, 0x0c, 0x02, 0xf9, 0xf9, 0xfd, 0x12, 0x08,
  0x09, 0xec, 0xef, 0xfb, 0x13, 0x07, 0x04, 0xf0, 0xf8, 0x01, 0xfe, 0xee,
  0x10, 0xde, 0xf6, 0xf3, 0xf6, 0x0d, 0xf7, 0xff, 0x05, 0xda, 0x14, 0xeb,
  0xf2, 0xf5, 0x02, 0xf7, 0xe4, 0x00, 0xff, 0xf7, 0xfe, 0x0f, 0x04, 0x03,
  0xff, 0xee, 0x2c, 0xeb, 0xfc, 0xee, 0x10, 0x12, 0x0c, 0x25, 0x06, 0x06,
  0x12, 0x05, 0x00, 0x05, 0x0c, 0xf7, 0x15, 0x00, 0x0c, 0x10, 0x0e, 0x0f,
  0x0e, 0x23, 0x07, 0x1a, 0xff, 0x08, 0x13, 0x16, 0x15, 0x09, 0x14, 0xf7,
  0x0c, 0x15, 0x0e, 0x10, 0xf3, 0x06, 0x1c, 0x0f, 0x16, 0xf9, 0x03, 0x0e,
  0x17, 0x09, 0xf2, 0xd9, 0xe6, 0x02, 0xfe, 0xec, 0x09, 0xed, 0x11, 0xff,
  0x06, 0xee, 0xea, 0x09, 0x15, 0x03, 0xdf, 0xfd, 0xf0, 0x20, 0xff, 0xe7,
  0x0e, 0xdb, 0xf2, 0xf9, 0xdb, 0xfc, 0xfe, 0xfb, 0xf9, 0x01, 0x05, 0x08,
  0x08, 0xfa, 0xfb, 0x04, 0x20, 0x03, 0xfd, 0x14, 0xf1, 0xfa, 0x0b, 0x01,
  0xff, 0x01, 0xff, 0x16, 0x05, 0xfd, 0x00, 0x08, 0x2e, 0x05, 0xfb, 0x05,
  0xfc, 0x08, 0xfa, 0x01, 0x03, 0xd8, 0xff, 0xfc, 0xfd, 0xf6, 0x0c, 0x13,
  0x04, 0x2c, 0x08, 0x0d, 0x0b, 0x15, 0x1e, 0x13, 0x0e, 0x01, 0xf7, 0xe8,
  0x04, 0x09, 0x0e, 0x08, 0x06, 0x08, 0x16, 0xff, 0x0c, 0x04, 0xff, 0x07,
  0x0a, 0xf8, 0xf0, 0xfd, 0x0e, 0x02, 0x0e, 0x01, 0x02, 0xf7, 0x14, 0xfc,
  0x1b, 0x03, 0xf5, 0x00, 0x07, 0xf9, 0xf2, 0x03, 0x00, 0x06, 0x0d, 0x00,
  0x0a, 0x06, 0x09, 0x06, 0xfc, 0xf8, 0xfd, 0xff, 0xf9, 0xf5, 0xf1, 0xf6,
  0xfc, 0xff, 0xfa, 0x00, 0xf7, 0x00, 0x07, 0x0b, 0xf7, 0xf3, 0xfc, 0xfd,
  0xff, 0xf9, 0xff, 0x05, 0x01, 0x07, 0x05, 0x00, 0xf8, 0xfb, 0xf7, 0x00,
  0x03, 0xf5, 0x06, 0xf9, 0xf7, 0x05, 0xe9, 0xf4, 0x03, 0x02, 0xf8, 0xf5,
  0xff, 0xfd, 0xfc, 0xf6, 0x0a, 0x01, 0xf3, 0xf4, 0x04, 0xfe, 0xf6, 0xec,
  0x08, 0xfe, 0x16, 0xff, 0xf8, 0x02, 0x06, 0x09, 0x11, 0x0d, 0x0e, 0x08,
  0x09, 0x01, 0xfa, 0x1e, 0x15, 0x0a, 0x08, 0x0e, 0x13, 0x0d, 0x01, 0x13,
  0x04, 0xfa, 0xf3, 0xf8, 0xfa, 0xf5, 0x0a, 0x06, 0x09, 0xec, 0xfe, 0x13,
  0xf9, 0xfa, 0xf4, 0x03, 0x05, 0x05, 0x0d, 0x0d, 0x02, 0x04, 0xfa, 0x10,
  0x00, 0x03, 0x08, 0xf9, 0x0b, 0x0d, 0x0d, 0x04, 0x02, 0x02, 0x0e, 0x08,
  0x06, 0x09, 0xf2, 0x02, 0xf9, 0xf8, 0x03, 0x03, 0xfd, 0x0a, 0x08, 0x01,
  0x05, 0xfd, 0xf9, 0xfd, 0xfe, 0x0b, 0xf0, 0x17, 0x0d, 0x05, 0xfd, 0x03,
  0x09, 0x07, 0xfe, 0x07, 0x0f, 0xfa, 0xc9, 0x01, 0xfd, 0xf7, 0xe0, 0xfd,
  0x08, 0x1f, 0xfb, 0xf9, 0x09, 0x0e, 0x12, 0x1e, 0xdb, 0xee, 0xfe, 0xe8,
  0xee, 0xf8, 0xf6, 0x08, 0x04, 0x13, 0xf5, 0xea, 0x12, 0xfc, 0xd8, 0xf8,
  0xfe, 0x04, 0xfe, 0xfb, 0xf3, 0xfa, 0x01, 0x0e, 0x11, 0xfa, 0x05, 0x0b,
  0xf0, 0x01, 0xf9, 0x0a, 0x28, 0x1d, 0x21, 0x11, 0xf3, 0x10, 0x4c, 0x02,
  0xf6, 0xd7, 0xfb, 0x0e, 0xd2, 0xfd, 0x18, 0xf1, 0x09, 0xfb, 0x27, 0x04,
  0x08, 0x10, 0x12, 0xeb, 0xf6, 0xe2, 0xf1, 0x04, 0xbf, 0xea, 0x05, 0xee,
  0x0a, 0xec, 0xeb, 0x0c, 0x0b, 0xf7, 0xec, 0xce, 0xf0, 0xeb, 0xfa, 0xeb,
  0xed, 0xf3, 0x0b, 0xee, 0x07, 0xdc, 0xc7, 0xfa, 0xff, 0xf9, 0xd2, 0xcb,
  0xd4, 0xe1, 0xea, 0xd7, 0xde, 0xe3, 0xf5, 0xdd, 0xe9, 0xea, 0x11, 0xe0,
  0xe8, 0xfb, 0xf0, 0x0c, 0xe9, 0xe2, 0xe2, 0xe7, 0xf9, 0xe5, 0xe2, 0xd4,
  0xfa, 0xed, 0x01, 0xf7, 0xf9, 0xfc, 0x06, 0x03, 0xfd, 0xff, 0xf8, 0xfe,
  0xf2, 0xf8, 0x00, 0xf1, 0xf9, 0x00, 0xf9, 0x04, 0x08, 0xe6, 0x01, 0xff,
  0x04, 0x15, 0x05, 0x01, 0x01, 0x12, 0x05, 0x06, 0xea, 0xf9, 0xeb, 0xfd,
  0x07, 0xea, 0xf9, 0xec, 0x00, 0x02, 0x00, 0xf8, 0xfc, 0x00, 0xfc, 0x00,
  0xfb, 0x04, 0xff, 0x0d, 0x0c, 0x0a, 0xfb, 0x01, 0x06, 0x0a, 0x07, 0x01,
  0x21, 0xff, 0x01, 0x04, 0xf9, 0x08, 0x0e, 0xfd, 0xfe, 0x0b, 0x0e, 0x0a,
  0x11, 0xf5, 0x01, 0x0e, 0x01, 0x0a, 0xff, 0x0a, 0x05, 0x0d, 0x09, 0xf7,
  0xff, 0x00, 0x11, 0xf8, 0xfc, 0xfc, 0x0b, 0x04, 0xfb, 0x1a, 0x0b, 0x19,
  0xf6, 0xf8, 0x1f, 0x01, 0xfa, 0x01, 0x02, 0xf7, 0xf2, 0xf2, 0xed, 0xed,
  0xfb, 0xea, 0xf3, 0xed, 0xf3, 0xf9, 0x01, 0xeb, 0xfb, 0x05, 0xf7, 0x12,
  0xf9, 0x10, 0xff, 0xf6, 0x01, 0x12, 0xf0, 0x0a, 0xf0, 0xf5, 0xf3, 0xf4,
  0xfc, 0xf6, 0xf7, 0x11, 0x01, 0x09, 0xf9, 0xf5, 0x0b, 0x0e, 0xf1, 0x14,
  0xe0, 0xf1, 0xe7, 0xf2, 0xfb, 0xeb, 0xea, 0x13, 0xff, 0x07, 0x04, 0xee,
  0x0b, 0x08, 0xf1, 0x07, 0xf8, 0xf0, 0xf9, 0xf6, 0xf8, 0x03, 0xf8, 0x06,
  0x00, 0xf9, 0xfc, 0x07, 0xff, 0x02, 0x00, 0xf2, 0xf5, 0xef, 0x18, 0x04,
  0x00, 0x07, 0xf5, 0xff, 0x01, 0x21, 0xf0, 0xf7, 0x05, 0xfa, 0xfe, 0x02,
  0x10, 0xff, 0x0c, 0x05, 0x10, 0x05, 0x02, 0xfa, 0xec, 0xfb, 0xeb, 0xff,
  0xfd, 0xf2, 0xff, 0xff, 0xfd, 0xfe, 0x0f, 0xf5, 0xf6, 0xee, 0x11, 0xfb,
  0xec, 0xe0, 0xf7, 0x02, 0xeb, 0xf0, 0xfc, 0xe5, 0x09, 0xfa, 0xfc, 0x01,
  0xfc, 0xfa, 0x07, 0xec, 0xe3, 0xda, 0xfe, 0x06, 0xe7, 0xf0, 0xf9, 0xec,
  0x02, 0xfc, 0xf6, 0xfb, 0xf9, 0xf2, 0x12, 0xf0, 0xee, 0xe7, 0xf4, 0xff,
  0xdb, 0xf7, 0xff, 0xe5, 0xf0, 0x00, 0xeb, 0xfb, 0xf9, 0x0a, 0x11, 0xea,
  0xfc, 0x0d, 0xf3, 0x02, 0xec, 0xf7, 0x01, 0xf1, 0x05, 0xf8, 0x04, 0x01,
  0x02, 0x0a, 0x0b, 0xf2, 0xf9, 0x0a, 0xf9, 0xfb, 0xff, 0xfa, 0xf9, 0x01,
  0xfe, 0xf5, 0x07, 0xf1, 0xf6, 0x02, 0xef, 0xfe, 0xf7, 0xfe, 0xf7, 0xea,
  0x04, 0xeb, 0xfa, 0xfc, 0x17, 0x15, 0x1b, 0x10, 0xf9, 0x10, 0x26, 0x14,
  0x10, 0xf6, 0x03, 0x1b, 0xec, 0x1d, 0x1d, 0x0f, 0x0a, 0x02, 0x12, 0x04,
  0x03, 0x16, 0x08, 0x00, 0x0e, 0x03, 0xff, 0x01, 0xe2, 0x12, 0xff, 0x0e,
  0x08, 0x04, 0xf4, 0x0d, 0x01, 0xf2, 0x04, 0xf7, 0x09, 0x03, 0x00, 0x08,
  0xf3, 0xfc, 0x09, 0x12, 0x00, 0x06, 0xf7, 0x10, 0x09, 0x03, 0x10, 0xf2,
  0x03, 0x04, 0x09, 0x0c, 0xfe, 0x14, 0x0a, 0x12, 0x0b, 0xfb, 0xfd, 0x00,
  0x0c, 0x03, 0xfa, 0xee, 0xfe, 0x07, 0x07, 0xfc, 0x09, 0x09, 0x0b, 0x11,
  0xff, 0x01, 0x08, 0x0b, 0x05, 0xfe, 0xf3, 0x09, 0xeb, 0xff, 0xfa, 0xf7,
  0x04, 0xee, 0x07, 0xf7, 0x10, 0xfe, 0x2c, 0xf7, 0xfc, 0x0e, 0x01, 0x04,
  0x02, 0xf5, 0x06, 0x02, 0xf1, 0x01, 0x03, 0x03, 0x21, 0x00, 0x09, 0x04,
  0x07, 0x0c, 0xff, 0xfa, 0xff, 0xfc, 0x0c, 0xfa, 0xdf, 0xfa, 0x00, 0xfd,
  0x06, 0xfb, 0x04, 0xfc, 0xf9, 0x08, 0x01, 0x02, 0xfa, 0xf7, 0xf7, 0xf9,
  0xe5, 0xf0, 0xf7, 0xfe, 0x02, 0x04, 0xf3, 0xfb, 0xe8, 0x02, 0x03, 0xf7,
  0x06, 0xf3, 0xfc, 0x15, 0xf0, 0x17, 0x0d, 0x0c, 0xf0, 0xf5, 0xeb, 0xf8,
  0xf4, 0xf4, 0x04, 0x05, 0x02, 0xfd, 0xf7, 0xf1, 0xe7, 0xf2, 0xee, 0xf7,
  0xf3, 0x08, 0x0f, 0x05, 0xfa, 0x07, 0x01, 0x0b, 0xfb, 0x02, 0x06, 0x02,
  0xff, 0x08, 0x03, 0x12, 0x0b, 0x0f, 0x03, 0xfd, 0xfa, 0xff, 0x0e, 0xf7,
  0x02, 0xf8, 0x00, 0x14, 0xf3, 0xf8, 0x0c, 0xf3, 0x1e, 0x08, 0x08, 0x10,
  0x08, 0x07, 0xf2, 0xfd, 0x03, 0xfa, 0x02, 0x03, 0x03, 0xfb, 0x05, 0x02,
  0x12, 0x0b, 0x00, 0x14, 0x0f, 0xf4, 0x02, 0x0c, 0x09, 0x09, 0x09, 0x13,
  0x12, 0x02, 0x01, 0x07, 0x1e, 0x04, 0x09, 0xfe, 0xfa, 0x0b, 0x05, 0x08,
  0x0a, 0x16, 0xfe, 0x02, 0x16, 0x19, 0x04, 0x1e, 0x0d, 0x03, 0xea, 0xfa,
  0xf7, 0x05, 0x19, 0xff, 0xfd, 0x04, 0x10, 0x08, 0x07, 0x09, 0x0f, 0x07,
  0xf5, 0x04, 0xfd, 0x07, 0xfc, 0xff, 0x0b, 0xee, 0xff, 0xfa, 0x0a, 0x12,
  0x04, 0x0c, 0x04, 0x05, 0x12, 0x12, 0x06, 0x08, 0x0c, 0x0f, 0xf6, 0x08,
  0x05, 0x04, 0x0b, 0x03, 0x10, 0x0f, 0x0e, 0x0a, 0x1d, 0x02, 0x0d, 0x0c,
  0x06, 0x05, 0xe6, 0x04, 0x07, 0xf8, 0x04, 0x0b, 0xf2, 0xf3, 0x0d, 0xed,
  0x03, 0xfb, 0x15, 0x04, 0x0d, 0x0c, 0xe7, 0xf4, 0xfa, 0x0a, 0xff, 0xf1,
  0xed, 0xf8, 0xff, 0xf0, 0x0c, 0xf2, 0x01, 0xfb, 0xfa, 0x04, 0xde, 0x0a,
  0xee, 0xff, 0xf4, 0x00, 0x0d, 0x05, 0xf6, 0xfe, 0xf4, 0xff, 0xfa, 0x01,
  0xf9, 0xfb, 0x05, 0xfe, 0xf8, 0xf8, 0x05, 0x04, 0xfe, 0xff, 0xf4, 0x09,
  0xfb, 0xf8, 0x03, 0x09, 0xf8, 0xff, 0x02, 0xf9, 0x06, 0xfd, 0x06, 0x07,
  0x03, 0x0c, 0x0d, 0x16, 0xf5, 0xe2, 0xea, 0xca, 0xc4, 0xe1, 0xf0, 0xf8,
  0xf2, 0x00, 0xdd, 0xeb, 0xf7, 0xf0, 0xd7, 0xf7, 0xeb, 0xe6, 0xf5, 0xde,
  0xd6, 0x0b, 0xf9, 0xee, 0xe5, 0xc9, 0xe7, 0xe8, 0xe1, 0xea, 0xe3, 0xd7,
  0xf8, 0xf0, 0x05, 0xf3, 0xe0, 0x11, 0xf9, 0x01, 0xde, 0xbe, 0xe7, 0xf2,
  0xe9, 0xef, 0xea, 0xef, 0xfb, 0xec, 0x0b, 0xea, 0xe5, 0x04, 0x00, 0x0a,
  0xf9, 0xd2, 0xf3, 0xf7, 0xd6, 0xea, 0xf1, 0xef, 0x0a, 0x00, 0xf7, 0x07,
  0xf9, 0xfd, 0x18, 0x00, 0x08, 0xec, 0x04, 0x16, 0xfa, 0xfe, 0xfb, 0x05,
  0xff, 0xfc, 0x0c, 0x01, 0xf3, 0x0a, 0x12, 0x00, 0x04, 0xfa, 0xfc, 0x09,
  0x02, 0x06, 0x04, 0xfc, 0x06, 0xff, 0x1c, 0x01, 0xf6, 0x0a, 0xf5, 0x02,
  0xf6, 0xe8, 0xf8, 0xfd, 0x12, 0xf7, 0x01, 0xf4, 0x09, 0xff, 0xfe, 0x01,
  0xfc, 0x08, 0xfd, 0x21, 0xff, 0xf5, 0xfe, 0x02, 0xfd, 0x08, 0xf7, 0x06,
  0xf2, 0xfe, 0x01, 0xf8, 0xfb, 0xf2, 0x02, 0x0f, 0x0e, 0xee, 0xf6, 0x03,
  0xfb, 0x13, 0xfe, 0x04, 0x02, 0x10, 0x0a, 0x03, 0xfb, 0x04, 0x02, 0xe0,
  0x09, 0x02, 0xfc, 0x10, 0xf1, 0x12, 0x0a, 0x12, 0xf7, 0xf9, 0xf6, 0x01,
  0xf2, 0x04, 0x04, 0xea, 0x06, 0x02, 0x03, 0xf4, 0xef, 0xf9, 0xf9, 0x05,
  0x17, 0x02, 0xfe, 0x00, 0x06, 0x07, 0x0c, 0x03, 0x04, 0x12, 0x11, 0x07,
  0x04, 0xfb, 0x07, 0x00, 0x2f, 0x0e, 0x17, 0x09, 0xf9, 0x10, 0x07, 0xf0,
  0xfa, 0xeb, 0x00, 0x09, 0xdf, 0xfd, 0x0a, 0xf8, 0x05, 0x01, 0x0f, 0xff,
  0xf4, 0x04, 0x07, 0x06, 0xfb, 0xe0, 0xfd, 0x06, 0xe0, 0xf4, 0xfc, 0xec,
  0x08, 0xfa, 0x09, 0xfd, 0xf3, 0xf8, 0x06, 0xfc, 0x01, 0xee, 0xf3, 0x0a,
  0xea, 0xf9, 0x04, 0xee, 0xff, 0x08, 0x0c, 0x08, 0x00, 0x03, 0xf4, 0xf1,
  0x09, 0xf1, 0x06, 0x0d, 0x00, 0x0b, 0xfd, 0x07, 0x0d, 0xfc, 0xfa, 0x00,
  0xfa, 0xfd, 0x09, 0xf8, 0x0d, 0x03, 0xfb, 0xfa, 0xfc, 0xf7, 0xfa, 0x01,
  0xfe, 0x0c, 0x01, 0xfb, 0xfe, 0x02, 0xfe, 0xf5, 0xfe, 0xfe, 0x02, 0x03,
  0x05, 0xf3, 0xfe, 0x07, 0x0f, 0x10, 0x13, 0x06, 0x06, 0x14, 0xf4, 0x13,
  0x0f, 0x05, 0x19, 0x06, 0x05, 0x15, 0x0c, 0x0f, 0x11, 0x0e, 0x24, 0x0d,
  0x09, 0x0c, 0xde, 0x15, 0x0c, 0xfa, 0x12, 0x0b, 0xf8, 0x15, 0x13, 0x0a,
  0x04, 0x08, 0x26, 0x05, 0xfb, 0x17, 0xe7, 0x10, 0x0e, 0x0a, 0x0a, 0x03,
  0x11, 0x0a, 0x0b, 0x08, 0x15, 0x01, 0xfe, 0xfc, 0xfb, 0x02, 0xe1, 0x10,
  0x07, 0x06, 0x04, 0xf2, 0x12, 0x0b, 0x02, 0x1b, 0xfb, 0x07, 0x0d, 0xf3,
  0xff, 0x05, 0x00, 0x0d, 0x03, 0xfd, 0x03, 0x01, 0x12, 0xf7, 0xfd, 0x02,
  0x01, 0x00, 0xf9, 0x0d, 0x00, 0x05, 0x03, 0xf6, 0x04, 0x03, 0x05, 0x07,
  0xfb, 0xfb, 0x10, 0xfa, 0x03, 0xec, 0xfe, 0xd7, 0xcb, 0xe7, 0x02, 0xf3,
  0xe9, 0xf1, 0xde, 0xf4, 0xf0, 0xfb, 0xe3, 0xee, 0xee, 0xf3, 0x00, 0xe5,
  0xe3, 0xfd, 0x0f, 0x04, 0xef, 0xdb, 0xe7, 0xf8, 0xed, 0xf5, 0xed, 0xf6,
  0xfb, 0x09, 0x0a, 0xfe, 0xee, 0x0e, 0x14, 0xfd, 0xfa, 0xdd, 0xf8, 0x13,
  0xda, 0x06, 0xf6, 0xf1, 0xf8, 0xff, 0xfb, 0xf5, 0xfd, 0xfb, 0x06, 0xfc,
  0xf4, 0xe5, 0xf8, 0xfd, 0xeb, 0xf2, 0xf6, 0xf0, 0x06, 0x05, 0x08, 0xf6,
  0x00, 0xf4, 0x0a, 0xf7, 0x01, 0xf6, 0x08, 0xf9, 0xf1, 0xe7, 0xfe, 0xef,
  0x10, 0xf6, 0x0a, 0xf5, 0xfb, 0xff, 0xfa, 0x07, 0xff, 0xf8, 0xf8, 0x03,
  0xf7, 0xfd, 0x00, 0x00, 0xf6, 0xff, 0xe1, 0xfd, 0xfd, 0xf8, 0xfc, 0xef,
  0x0c, 0xfe, 0xfe, 0x02, 0x01, 0xf2, 0xfc, 0x00, 0xfe, 0xff, 0xf6, 0x02,
  0xff, 0xf3, 0x02, 0xf5, 0xf9, 0xef, 0xfe, 0x03, 0xe2, 0xff, 0x04, 0xf1,
  0xfa, 0x02, 0xfd, 0x00, 0x03, 0x0a, 0x01, 0xeb, 0xf2, 0x0a, 0x08, 0xf4,
  0x06, 0x02, 0x05, 0xf8, 0x00, 0xeb, 0x12, 0x09, 0x14, 0x05, 0xe7, 0x12,
  0xf1, 0x13, 0x08, 0xe0, 0x1f, 0xdf, 0xed, 0xf2, 0x06, 0xf4, 0xea, 0xfd,
  0x07, 0xf8, 0xea, 0xf8, 0x09, 0x04, 0xfb, 0xfe, 0x01, 0x04, 0xf8, 0xf8,
  0xfb, 0xee, 0xfe, 0xf0, 0xe7, 0x07, 0xec, 0xef, 0x00, 0xf1, 0xfa, 0xfa,
  0xf8, 0xf5, 0xfe, 0x00, 0xf3, 0x02, 0xf9, 0x00, 0x01, 0xf2, 0x1a, 0xfa,
  0x03, 0x04, 0x02, 0x06, 0xfb, 0x10, 0x06, 0x06, 0xf9, 0x08, 0xf2, 0x0a,
  0x0b, 0xde, 0xf2, 0x05, 0x0c, 0x01, 0x03, 0x07, 0xfd, 0x04, 0x04, 0x02,
  0xfa, 0xfd, 0xfd, 0xfc, 0xf7, 0x06, 0xfb, 0xe0, 0x02, 0xfd, 0xfa, 0x02,
  0xf3, 0xfe, 0x00, 0xf8, 0x03, 0xf2, 0xfb, 0x01, 0x07, 0x11, 0xfb, 0xd8,
  0xe2, 0xee, 0x04, 0xe6, 0xe6, 0xe6, 0xec, 0xed, 0xf1, 0xfd, 0xfa, 0x03,
  0x07, 0x08, 0x0b, 0xf7, 0xfe, 0xf4, 0x02, 0x0b, 0xf3, 0xf9, 0xfb, 0xf7,
  0x08, 0x01, 0xf8, 0xfa, 0xf5, 0x07, 0x01, 0xf3, 0xfe, 0xfb, 0x01, 0xfc,
  0xfa, 0x01, 0x01, 0xf9, 0x0b, 0xf3, 0xc2, 0x01, 0xfd, 0xd4, 0xf1, 0xe8,
  0x15, 0x0d, 0xff, 0xff, 0x0b, 0x0d, 0x01, 0x1b, 0xdd, 0xe2, 0xfe, 0xdf,
  0xea, 0x0e, 0xff, 0x17, 0xff, 0x12, 0xe3, 0xf2, 0x14, 0x0c, 0xe8, 0x18,
  0xf1, 0xfe, 0xf9, 0xfd, 0xff, 0xf6, 0x05, 0x28, 0x17, 0x0a, 0xf8, 0x06,
  0x17, 0x18, 0xfe, 0x11, 0xfa, 0x06, 0x0d, 0x05, 0x06, 0x0e, 0x0b, 0x00,
  0x0f, 0xf7, 0x09, 0x16, 0xf6, 0x02, 0x05, 0xfe, 0x16, 0x05, 0xf3, 0x05,
  0x06, 0x09, 0x02, 0xe9, 0xf6, 0xf4, 0xfd, 0x04, 0xf2, 0xf8, 0x17, 0x0a,
  0xec, 0xfa, 0x06, 0xfa, 0xfe, 0x01, 0x07, 0x09, 0x00, 0xfd, 0xe8, 0xfb,
  0xf7, 0xfa, 0xf7, 0xff, 0xf1, 0xf2, 0xeb, 0xef, 0x0c, 0xfb, 0xea, 0x06,
  0x03, 0x0c, 0x0e, 0xf6, 0x16, 0xfd, 0xe8, 0x03, 0xff, 0x10, 0x07, 0x0c,
  0x08, 0xfb, 0x20, 0x15, 0x0d, 0x03, 0x0b, 0x0e, 0x2b, 0x09, 0x0b, 0x01,
  0x05, 0x13, 0x1d, 0x07, 0x0b, 0x11, 0x10, 0x20, 0x02, 0x0b, 0x12, 0x16,
  0x1b, 0x09, 0x06, 0x01, 0xfe, 0x0c, 0x02, 0x0b, 0x0f, 0xff, 0x0a, 0x10,
  0x13, 0x1f, 0x05, 0xfd, 0x15, 0x10, 0x08, 0x0f, 0x08, 0x06, 0xe3, 0xf9,
  0xfa, 0x10, 0xf2, 0xf5, 0xff, 0x0b, 0x09, 0x03, 0x16, 0x11, 0x00, 0x11,
  0xf8, 0xfe, 0xfa, 0xfd, 0x03, 0x05, 0x05, 0x00, 0xeb, 0xf6, 0xfe, 0xf6,
  0xf6, 0xfd, 0xfa, 0xfc, 0x01, 0xfe, 0x16, 0xfa, 0xf7, 0x0d, 0xef, 0xfd,
  0xef, 0xf9, 0xf6, 0xf4, 0xf0, 0xfc, 0xfc, 0xf4, 0xdc, 0xfc, 0x0f, 0xf3,
  0xf9, 0x01, 0x08, 0x11, 0xf9, 0xf1, 0xf3, 0xff, 0xfd, 0xf7, 0xf4, 0xf9,
  0x06, 0x01, 0x08, 0xf6, 0xf7, 0x01, 0x08, 0xe4, 0x08, 0x00, 0x00, 0x02,
  0x0b, 0x05, 0x03, 0x08, 0x02, 0xfc, 0xee, 0x0a, 0xff, 0xfd, 0xf7, 0x0a,
  0xf7, 0x04, 0xff, 0xf1, 0x03, 0xf8, 0x03, 0xfe, 0x02, 0xf4, 0x03, 0x04,
  0xfe, 0x03, 0xfb, 0x0b, 0x03, 0x10, 0xf7, 0xed, 0x11, 0xf0, 0xf2, 0xf0,
  0x01, 0xfc, 0xf1, 0x01, 0xff, 0x03, 0x03, 0x0d, 0xfb, 0x11, 0x0c, 0xf3,
  0x1d, 0x04, 0x07, 0x0d, 0x13, 0x0b, 0x05, 0x0f, 0xff, 0x12, 0x0c, 0xe3,
  0xf2, 0xec, 0x01, 0x04, 0xf2, 0x0a, 0x15, 0xfb, 0xf0, 0x01, 0x15, 0x06,
  0xff, 0x05, 0x03, 0xf7, 0xf9, 0xdb, 0xfc, 0x08, 0xd6, 0xeb, 0x00, 0xdd,
  0x10, 0x06, 0x2b, 0x04, 0xf4, 0x1b, 0x16, 0xf1, 0x03, 0xf3, 0xf4, 0x0c,
  0xeb, 0x03, 0x14, 0xfb, 0x03, 0x00, 0x00, 0x08, 0xff, 0x0a, 0x05, 0xe0,
  0xee, 0xdf, 0xf0, 0xfd, 0xe5, 0xef, 0xf8, 0xf1, 0x05, 0x08, 0x01, 0x09,
  0xf6, 0x0d, 0x06, 0xf7, 0xe3, 0xe8, 0xf9, 0xf6, 0xf0, 0x05, 0x07, 0xee,
  0xf5, 0x04, 0x00, 0x0b, 0x09, 0xf8, 0x00, 0xfb, 0x02, 0xfa, 0x07, 0x00,
  0x09, 0xfc, 0x05, 0xf7, 0xf4, 0x06, 0xf2, 0x00, 0x0a, 0x05, 0x16, 0x0a,
  0x17, 0x09, 0x14, 0x05, 0x01, 0x22, 0x0f, 0x1c, 0xf2, 0x02, 0xf2, 0x10,
  0x09, 0x08, 0x05, 0x04, 0x08, 0x08, 0x07, 0xfa, 0x0a, 0x09, 0x04, 0x08,
  0x05, 0x03, 0xfe, 0x08, 0x08, 0x06, 0xf1, 0x09, 0x15, 0x05, 0x12, 0x0e,
  0x0e, 0x26, 0x0b, 0x14, 0x0a, 0x05, 0x0d, 0x09, 0x0e, 0x05, 0xf1, 0x0f,
  0x03, 0x01, 0x0b, 0x08, 0x07, 0x01, 0x09, 0x0a, 0xff, 0x0a, 0x00, 0x03,
  0x15, 0x06, 0x0b, 0x01, 0x02, 0x04, 0x12, 0x05, 0xfb, 0xf2, 0x03, 0x0a,
  0x03, 0x06, 0xfa, 0x0c, 0x08, 0xfc, 0x07, 0xf3, 0x03, 0xfb, 0x04, 0x03,
  0x04, 0x01, 0x04, 0x05, 0xf6, 0x03, 0xf1, 0x08, 0x12, 0xec, 0xe9, 0xf9,
  0xf9, 0x0c, 0x12, 0xf2, 0x0b, 0x0c, 0x06, 0x06, 0xf9, 0xf0, 0xf3, 0xf6,
  0xfc, 0xf4, 0xf7, 0x08, 0xfb, 0x0b, 0xf8, 0xf7, 0x36, 0x02, 0xfb, 0x07,
  0xf3, 0xfd, 0xfb, 0xfd, 0x02, 0x0a, 0x0a, 0x03, 0xfb, 0xff, 0x02, 0x0a,
  0x03, 0xf8, 0x04, 0xf9, 0x05, 0xff, 0x19, 0xf7, 0xf9, 0x13, 0x0d, 0x10,
  0x05, 0x03, 0x04, 0xf7, 0x0e, 0xfc, 0x01, 0x03, 0x0c, 0x01, 0x01, 0x03,
  0xfc, 0xfe, 0x08, 0x0f, 0xf5, 0xfe, 0x01, 0x03, 0x18, 0xfb, 0x00, 0xea,
  0x09, 0xff, 0xfa, 0x00, 0x00, 0xfd, 0x03, 0x01, 0xfc, 0x08, 0x06, 0x07,
  0xff, 0xfd, 0x0b, 0x0c, 0x0a, 0x04, 0x04, 0x08, 0x05, 0xfe, 0x05, 0xf7,
  0x06, 0x0f, 0x06, 0x05, 0x0a, 0xfb, 0x09, 0xfc, 0xfe, 0xff, 0x00, 0xfd,
  0x02, 0x01, 0xff, 0x07, 0x0f, 0x09, 0x05, 0x04, 0x2a, 0xfe, 0x00, 0x04,
  0xf9, 0xf1, 0xe4, 0x05, 0x08, 0xf7, 0x06, 0x03, 0x00, 0x04, 0x01, 0xf7,
  0x18, 0xfc, 0xfc, 0x05, 0x0e, 0x09, 0xec, 0xff, 0x05, 0xfc, 0x02, 0xff,
  0x17, 0x02, 0x08, 0x18, 0x04, 0x12, 0x0e, 0x15, 0x19, 0x09, 0x08, 0x06,
  0x09, 0x03, 0x09, 0xf5, 0x0c, 0x0c, 0x0a, 0x1a, 0xfc, 0x0a, 0x05, 0x05,
  0xf5, 0x12, 0x12, 0x03, 0xf8, 0x06, 0x17, 0x06, 0x0d, 0xfb, 0x0f, 0x1a,
  0xe7, 0x02, 0x0c, 0xfd, 0x21, 0x09, 0x07, 0xf8, 0xfd, 0x0c, 0xec, 0x16,
  0x07, 0x05, 0xfc, 0x0f, 0x1a, 0x09, 0x04, 0x08, 0x04, 0x00, 0x08, 0xf7,
  0xfd, 0xfc, 0xe7, 0x0e, 0xf6, 0x08, 0xfc, 0x02, 0x10, 0xff, 0xfc, 0x04,
  0xed, 0xf6, 0xcf, 0xfe, 0x02, 0xf8, 0xde, 0x03, 0x00, 0x0a, 0x01, 0xe4,
  0x0d, 0xfa, 0xe6, 0x03, 0x05, 0x05, 0xfa, 0xf7, 0xfc, 0xf8, 0xf7, 0x1e,
  0x06, 0x00, 0xf3, 0x03, 0x0f, 0x0c, 0xfd, 0x0a, 0x0d, 0x0d, 0x11, 0x02,
  0xfb, 0xfc, 0x0c, 0x0c, 0x0f, 0x08, 0xfd, 0x0e, 0x16, 0x10, 0x02, 0x10,
  0xf4, 0x10, 0x16, 0x0e, 0xfa, 0xfb, 0x06, 0xfa, 0xfa, 0xfd, 0x17, 0x01,
  0x11, 0x1e, 0x17, 0x00, 0xce, 0xf1, 0xfe, 0xe6, 0xe1, 0xf4, 0xff, 0xe4,
  0xd8, 0xdb, 0xea, 0xfa, 0xea, 0xe5, 0xee, 0xd0, 0x13, 0xf7, 0x02, 0xf9,
  0xf1, 0xf9, 0x03, 0xed, 0xf2, 0xe6, 0xef, 0xf9, 0xf4, 0xe8, 0xf4, 0xdf,
  0xf3, 0xff, 0x09, 0xf7, 0xf3, 0xf7, 0x20, 0x01, 0xe5, 0xdc, 0xf8, 0x04,
  0xf3, 0xea, 0xf3, 0xe6, 0xf5, 0xfd, 0xf9, 0xfb, 0xf8, 0x02, 0x05, 0xec,
  0xfd, 0xfe, 0xf7, 0xf9, 0x07, 0xfe, 0xfc, 0xfa, 0x0a, 0x00, 0xff, 0x04,
  0xfa, 0xff, 0x02, 0x08, 0xfb, 0xf8, 0x05, 0xff, 0x11, 0x05, 0x02, 0xf3,
  0xf9, 0xfa, 0xfb, 0x0a, 0x0e, 0xfb, 0xfb, 0xf3, 0xfd, 0xfe, 0x05, 0x04,
  0xf9, 0x00, 0xf4, 0x04, 0xf8, 0x05, 0x0c, 0xfb, 0xf9, 0x03, 0x15, 0x0b,
  0x04, 0xf9, 0x03, 0x0c, 0xf0, 0x16, 0x00, 0x09, 0x04, 0x0c, 0x07, 0x01,
  0x04, 0x01, 0x09, 0xff, 0x0d, 0x15, 0xff, 0x06, 0xf7, 0x0b, 0x02, 0x09,
  0xfb, 0x06, 0xf2, 0xff, 0xfd, 0xfa, 0xf3, 0xf1, 0xf7, 0x09, 0x0a, 0xfa,
  0xf4, 0xfa, 0xf7, 0x00, 0xf5, 0xfd, 0xcf, 0x00, 0xfd, 0xf4, 0xdc, 0xdc,
  0xf6, 0xf7, 0xfb, 0xf6, 0x03, 0xfd, 0x02, 0x05, 0x03, 0xea, 0xfe, 0xea,
  0xf8, 0xff, 0xe0, 0xf1, 0xfc, 0xfd, 0xf9, 0xf4, 0xf4, 0xef, 0xe4, 0xfa,
  0x02, 0x02, 0xfe, 0x01, 0xed, 0xf2, 0xf8, 0x06, 0xfb, 0xfa, 0xf4, 0x01,
  0x02, 0x07, 0xfa, 0xfc, 0xed, 0xfd, 0x04, 0x04, 0x02, 0x0f, 0x0e, 0xfb,
  0x02, 0x15, 0x01, 0x06, 0x06, 0x00, 0x08, 0x08, 0xf4, 0xff, 0xfe, 0x03,
  0x03, 0x02, 0xf8, 0x01, 0x07, 0x04, 0x0a, 0xff, 0x22, 0x02, 0x04, 0x01,
  0xef, 0x0b, 0xd3, 0x09, 0x04, 0xd9, 0xf6, 0xf6, 0x11, 0xff, 0xfb, 0x04,
  0x13, 0x17, 0x05, 0x0d, 0x0e, 0x18, 0xf3, 0x0f, 0x03, 0xf1, 0xe6, 0xe3,
  0x1b, 0x00, 0x0f, 0x0d, 0xfd, 0x1d, 0x17, 0x17, 0x19, 0x03, 0x0b, 0x0b,
  0x02, 0x04, 0x01, 0xf8, 0x16, 0x0b, 0x0c, 0x0e, 0x0c, 0xf9, 0x16, 0x11,
  0xf5, 0x0e, 0x0c, 0x04, 0x07, 0x01, 0x1a, 0xfc, 0xf8, 0xf2, 0x0a, 0x12,
  0xf6, 0xfc, 0x03, 0xf6, 0xec, 0xfd, 0xf3, 0xfc, 0x02, 0xfc, 0xee, 0x00,
  0x07, 0x06, 0x00, 0xff, 0x00, 0x09, 0x07, 0x0c, 0xf2, 0xf4, 0xf7, 0xfb,
  0x00, 0x11, 0xf2, 0x03, 0xff, 0x08, 0xfb, 0xec, 0x02, 0x0d, 0xf1, 0x0c,
  0xf9, 0x01, 0xea, 0x14, 0x11, 0xff, 0xfc, 0x0b, 0x00, 0x03, 0x10, 0xdd,
  0x00, 0xfb, 0xf4, 0x07, 0x0b, 0xf5, 0x1a, 0xfc, 0x08, 0xf6, 0xf3, 0xfa,
  0xf9, 0x03, 0xf4, 0xfe, 0xf8, 0xfc, 0xfe, 0x0a, 0x03, 0xfa, 0x0d, 0xfa,
  0xfb, 0xfc, 0xfa, 0x08, 0x12, 0x12, 0x0a, 0x06, 0x13, 0xfb, 0x0e, 0x02,
  0x04, 0x09, 0x10, 0x09, 0x0c, 0xf3, 0x0f, 0x11, 0x09, 0x10, 0x0c, 0x14,
  0x11, 0x06, 0xfe, 0x02, 0xd3, 0xf7, 0x00, 0xf8, 0xf3, 0xef, 0x04, 0xef,
  0xee, 0xed, 0xed, 0x02, 0xfc, 0xf7, 0xf9, 0xee, 0xff, 0x05, 0x03, 0x02,
  0xf5, 0xfb, 0x12, 0xe7, 0xfa, 0xeb, 0xf0, 0x0e, 0xf6, 0xfc, 0x02, 0xe2,
  0xfd, 0xff, 0xf2, 0xf3, 0xfc, 0xf8, 0xfe, 0x02, 0xf8, 0xfc, 0xf5, 0xf9,
  0x06, 0xe9, 0xfd, 0xe8, 0x15, 0xf2, 0xf0, 0xf2, 0xec, 0x00, 0xec, 0xf6,
  0xf3, 0x01, 0x03, 0xff, 0x08, 0x03, 0x03, 0x0b, 0xe6, 0xf1, 0x0d, 0xfb,
  0xff, 0x09, 0x02, 0x10, 0xf9, 0xfb, 0x03, 0xff, 0x1c, 0xfa, 0xf8, 0xeb,
  0xfa, 0x04, 0x0d, 0xfc, 0x06, 0x04, 0x01, 0x0f, 0x0b, 0x03, 0x04, 0xfc,
  0x03, 0xfe, 0xf5, 0x08, 0xf0, 0x13, 0xfb, 0xfd, 0xf2, 0xe8, 0x20, 0xe5,
  0x05, 0xe5, 0xf6, 0x17, 0x02, 0x11, 0x0c, 0xfe, 0x02, 0x00, 0xee, 0xf5,
  0xf7, 0xf7, 0x09, 0xe4, 0x07, 0xec, 0x06, 0x03, 0xf4, 0x0a, 0x02, 0x03,
  0xf3, 0xe5, 0xe4, 0xe8, 0xef, 0xf0, 0xe8, 0xe1, 0xe3, 0xec, 0xed, 0xe4,
  0x06, 0xe1, 0xed, 0xe5, 0x0f, 0xe1, 0xd8, 0xe9, 0xe8, 0xfc, 0xcf, 0xe1,
  0xd4, 0xff, 0xe8, 0xeb, 0x0f, 0xf2, 0xf2, 0x00, 0xcd, 0xe8, 0x0a, 0xe9,
  0xed, 0x08, 0xe6, 0x06, 0xf9, 0xfc, 0xfe, 0xe4, 0x05, 0xf4, 0xee, 0xd9,
  0xf9, 0xfc, 0xfe, 0x07, 0xff, 0x00, 0x03, 0x0b, 0xf3, 0xf8, 0xf3, 0xfe,
  0x00, 0xf3, 0xfe, 0xfb, 0xe0, 0x05, 0xe6, 0x09, 0x07, 0xec, 0x03, 0xf2,
  0x0e, 0x16, 0x06, 0x00, 0x05, 0x05, 0xfe, 0x1a, 0xe3, 0xfe, 0xee, 0x05,
  0x01, 0xf0, 0xfb, 0x00, 0x0c, 0x0b, 0x02, 0x06, 0x3f, 0x09, 0x03, 0x14,
  0xec, 0xff, 0xcf, 0x03, 0x06, 0xc8, 0xfc, 0xfd, 0x04, 0x02, 0x09, 0x06,
  0x12, 0x0e, 0x08, 0x0f, 0xff, 0x07, 0xf1, 0x0b, 0x0d, 0xf4, 0x08, 0xfb,
  0x06, 0x02, 0x11, 0x10, 0x00, 0x10, 0x08, 0x10, 0x0f, 0x0c, 0xee, 0xfc,
  0x02, 0xfe, 0x18, 0xfd, 0x03, 0x0a, 0x02, 0x17, 0x07, 0x08, 0x0e, 0x0e,
  0x08, 0xf6, 0x00, 0xfa, 0x05, 0xff, 0x06, 0x06, 0xf7, 0xf8, 0x0a, 0x02,
  0x00, 0x01, 0x01, 0xf4, 0xdc, 0xfb, 0xf7, 0xef, 0xfe, 0xf8, 0xea, 0x06,
  0x0a, 0x0e, 0xfe, 0x02, 0xfd, 0x1e, 0xf5, 0x0e, 0xe3, 0xf9, 0xe3, 0xfb,
  0x05, 0xe2, 0xfd, 0x0f, 0x01, 0x08, 0x05, 0xf7, 0x00, 0x0c, 0xf5, 0x14,
  0xe2, 0xf2, 0xc2, 0xf2, 0xfe, 0xf5, 0xe9, 0x01, 0xfd, 0x01, 0xfa, 0xf0,
  0xf7, 0x08, 0xe9, 0x00, 0x06, 0xfe, 0xf4, 0xf4, 0x07, 0xf2, 0xfa, 0x15,
  0x00, 0x09, 0xfd, 0xf0, 0x06, 0x02, 0xfa, 0x01, 0xfc, 0xf2, 0x0a, 0x01,
  0x06, 0x05, 0xef, 0x0c, 0x06, 0x18, 0xfa, 0x04, 0x12, 0xfa, 0xfa, 0x09,
  0x17, 0x03, 0x13, 0xf9, 0xf7, 0x05, 0xff, 0xfc, 0xf9, 0x05, 0xfb, 0x06,
  0x05, 0xfc, 0x07, 0x03, 0xd4, 0xfb, 0x0d, 0xf5, 0xef, 0xfb, 0xf5, 0x02,
  0xf4, 0xf2, 0xf1, 0xf9, 0xfe, 0xef, 0xf6, 0xe5, 0x0e, 0xf5, 0xfe, 0xf8,
  0xfb, 0xf6, 0xfe, 0x08, 0xfa, 0xf8, 0xf2, 0xf9, 0x0a, 0xf5, 0xf6, 0xf6,
  0x05, 0xff, 0xf1, 0xf5, 0xf9, 0x03, 0x16, 0x14, 0xf1, 0xf3, 0xf6, 0x02,
  0x07, 0xf3, 0xfb, 0xee, 0xf0, 0x04, 0xfa, 0xfc, 0xf8, 0x16, 0x02, 0x02,
  0x14, 0x0e, 0xf8, 0x0c, 0x01, 0xf4, 0xfe, 0xed, 0x22, 0xf9, 0xfd, 0xfc,
  0xfd, 0x07, 0xf7, 0xfa, 0xfb, 0x0e, 0xf0, 0x05, 0x11, 0xfc, 0xfc, 0x0a,
  0x02, 0xf5, 0x00, 0xf6, 0xfa, 0xfa, 0xf5, 0x0a, 0xfd, 0x00, 0xf2, 0xfb,
  0x03, 0xf9, 0xf3, 0xfe, 0xf7, 0x0a, 0x1a, 0xfb, 0xf0, 0x0c, 0x1a, 0x06,
  0x00, 0xef, 0xf8, 0x11, 0xe6, 0x03, 0x03, 0xf4, 0x05, 0x04, 0x08, 0x09,
  0x07, 0xfc, 0x0c, 0x00, 0x0f, 0x03, 0x02, 0x06, 0xf2, 0x0a, 0xfa, 0x02,
  0x02, 0x09, 0xe2, 0x0c, 0x13, 0xec, 0xfe, 0xde, 0x01, 0x0e, 0x0a, 0x02,
  0x0f, 0xf8, 0x06, 0xfd, 0xfa, 0x0e, 0xde, 0x10, 0x04, 0xfd, 0xfa, 0xe4,
  0x04, 0x06, 0x07, 0xfa, 0xfc, 0x08, 0x13, 0x17, 0xf9, 0xed, 0xe1, 0xff,
  0x06, 0x06, 0xea, 0xf6, 0xf5, 0x13, 0xf9, 0xe6, 0x01, 0xee, 0xf8, 0x05,
  0xff, 0xfe, 0xfb, 0x0a, 0x08, 0x05, 0x00, 0xff, 0xff, 0x0b, 0x06, 0xfb,
  0x01, 0xf5, 0xfc, 0xf0, 0xf3, 0x00, 0xf8, 0xf8, 0x03, 0xfe, 0x02, 0xdf,
  0xf4, 0x0a, 0x04, 0xf9, 0xe2, 0xf3, 0xff, 0xef, 0x00, 0x05, 0xf7, 0x03,
  0x12, 0xef, 0x03, 0xcb, 0x0b, 0x0d, 0x0b, 0x00, 0x04, 0x09, 0xfe, 0x04,
  0x1c, 0xf9, 0x07, 0xfd, 0xee, 0x06, 0x02, 0xfb, 0xef, 0x0a, 0xe7, 0xf8,
  0x17, 0xfa, 0xff, 0x00, 0xc2, 0xef, 0xfd, 0xe6, 0xed, 0xec, 0x01, 0x01,
  0xdd, 0xe1, 0xea, 0xef, 0xe6, 0xe2, 0xdb, 0xd8, 0xf8, 0x03, 0xf7, 0xfe,
  0xfc, 0xee, 0xfc, 0xfe, 0xfb, 0xf4, 0xfe, 0xf7, 0x03, 0xf7, 0xfc, 0xed,
  0xf9, 0x03, 0x1f, 0x03, 0xfd, 0xf9, 0x03, 0x15, 0x0b, 0xf8, 0xfe, 0x02,
  0xfd, 0x0c, 0x0b, 0x0c, 0xe2, 0x02, 0xf2, 0x12, 0x05, 0xf2, 0x20, 0xfd,
  0xfb, 0xfc, 0x00, 0x01, 0xfb, 0xf1, 0x0c, 0xf7, 0xfd, 0xfe, 0xd9, 0x04,
  0x06, 0xe3, 0xf7, 0xfa, 0x0a, 0x06, 0xfc, 0xfa, 0x09, 0xfb, 0xfe, 0x01,
  0x1d, 0xfd, 0x2e, 0xf0, 0xd6, 0xfb, 0x0c, 0xec, 0xe9, 0xf3, 0xec, 0xfb,
  0xff, 0xfa, 0xf7, 0xf9, 0xea, 0xfa, 0x09, 0x00, 0xff, 0xfd, 0x15, 0x07,
  0xf4, 0xf0, 0xf6, 0x01, 0xeb, 0x09, 0xfd, 0xef, 0xfe, 0x11, 0xf9, 0x02,
  0x04, 0xf5, 0x04, 0xfc, 0x04, 0x10, 0x18, 0x06, 0xf1, 0x0f, 0x03, 0x11,
  0x04, 0x15, 0x0f, 0x0e, 0xfd, 0xe9, 0xff, 0x1e, 0x0c, 0xfd, 0x19, 0x12,
  0xfe, 0x0f, 0x03, 0x1d, 0xf9, 0x06, 0xfb, 0xfd, 0xf5, 0xea, 0x18, 0xfb,
  0x09, 0x01, 0xf3, 0x16, 0xfa, 0x0c, 0x03, 0x04, 0xfb, 0xf6, 0x04, 0xf8,
  0xf9, 0x00, 0xfb, 0xf2, 0x01, 0x0b, 0xeb, 0xf4, 0x0a, 0xfa, 0xf6, 0xf7,
  0xe8, 0x04, 0x16, 0xfc, 0xf5, 0xf4, 0x0a, 0xfa, 0xf6, 0xdb, 0xec, 0xfb,
  0xee, 0xf3, 0xfb, 0xdb, 0x07, 0x0d, 0x07, 0x10, 0x00, 0xf3, 0x02, 0x10,
  0xf8, 0xf5, 0x02, 0x15, 0xf4, 0x0c, 0x02, 0x16, 0x05, 0xf4, 0xe2, 0xf4,
  0xf4, 0xe8, 0xeb, 0xef, 0xed, 0xfc, 0xf8, 0xf4, 0xfc, 0x02, 0xf7, 0x0a,
  0xf6, 0x01, 0x2a, 0xf2, 0xed, 0xee, 0xf4, 0x19, 0xfa, 0xf8, 0x04, 0x01,
  0x02, 0x04, 0xf0, 0xf8, 0x0c, 0xfd, 0x0b, 0xfb, 0xfe, 0x2f, 0xeb, 0x1d,
  0x0e, 0x09, 0x04, 0x0a, 0x33, 0x26, 0x07, 0x12, 0xfa, 0xf5, 0xff, 0x02,
  0x0b, 0xfb, 0xec, 0x29, 0xe9, 0x09, 0x0e, 0xf1, 0x1a, 0xf4, 0xf7, 0xf2,
  0xf9, 0x04, 0x1c, 0xf7, 0xf9, 0x10, 0x11, 0x1e, 0x08, 0x09, 0x02, 0x09,
  0x14, 0x12, 0x01, 0x0a, 0x12, 0x08, 0xf4, 0x0d, 0xfe, 0xe2, 0xfe, 0xf8,
  0x04, 0x08, 0xff, 0x00, 0x02, 0x14, 0x0a, 0x1b, 0x07, 0xef, 0xea, 0xf5,
  0xf6, 0xe2, 0xdf, 0xfb, 0xec, 0x04, 0xed, 0xf8, 0xfa, 0xf8, 0xee, 0xf9,
  0xfe, 0x01, 0x18, 0xf7, 0xf6, 0xfe, 0xfe, 0x11, 0xfb, 0xf1, 0x00, 0x07,
  0xef, 0x03, 0xf9, 0xf1, 0x1c, 0xff, 0x0a, 0xff, 0x03, 0x11, 0x06, 0x08,
  0x0c, 0x01, 0x04, 0x09, 0xf9, 0x0f, 0x04, 0x05, 0x29, 0x04, 0x0a, 0x01,
  0x08, 0x15, 0xfb, 0xd2, 0x04, 0x08, 0x0f, 0xf2, 0xfa, 0xe5, 0x07, 0xf8,
  0x15, 0xf3, 0x01, 0x07, 0xff, 0x1c, 0xfb, 0xed, 0xf7, 0x00, 0xfa, 0xf3,
  0xfd, 0xeb, 0xff, 0xf3, 0x04, 0x00, 0xf5, 0x00, 0xf6, 0xfd, 0xe6, 0xef,
  0xfd, 0xee, 0xfb, 0x09, 0xf4, 0x0c, 0x0f, 0xfa, 0x04, 0xf4, 0x16, 0xfb,
  0xed, 0x03, 0xfe, 0xfb, 0x01, 0x0a, 0xfb, 0xf5, 0xff, 0x03, 0xe5, 0xed,
  0xeb, 0x12, 0x08, 0x00, 0xf3, 0xf8, 0x11, 0x04, 0x0f, 0xea, 0xfe, 0x12,
  0x06, 0x09, 0x00, 0x00, 0xfd, 0x00, 0x01, 0x06, 0x09, 0xf5, 0xff, 0xfb,
  0xff, 0xfd, 0x09, 0x08, 0xfd, 0x05, 0x0b, 0x01, 0x14, 0x0f, 0xeb, 0x0a,
  0x0e, 0x0c, 0xea, 0xf7, 0xf4, 0x01, 0x08, 0x01, 0x03, 0xfe, 0x11, 0x09,
  0x18, 0x15, 0x08, 0x1b, 0x10, 0x01, 0x11, 0x02, 0x0d, 0x18, 0x10, 0x04,
  0x15, 0xfd, 0x08, 0x11, 0x1b, 0x0a, 0x00, 0x05, 0xf4, 0xfd, 0x04, 0x15,
  0x09, 0x07, 0xfc, 0x05, 0x1b, 0x0e, 0x03, 0x11, 0x16, 0x09, 0x06, 0xfb,
  0xf6, 0xfa, 0x19, 0x0e, 0xf2, 0xf8, 0x04, 0x03, 0x0c, 0x0f, 0xff, 0x0d,
  0xe9, 0x0c, 0x1c, 0x0b, 0xf2, 0x08, 0x05, 0x0e, 0x00, 0xf7, 0x1c, 0x08,
  0xf2, 0x19, 0xfc, 0x05, 0xe2, 0xea, 0xf8, 0xdf, 0xe8, 0x05, 0xfc, 0xfd,
  0xf1, 0x09, 0xe3, 0xeb, 0x0e, 0xf9, 0xdc, 0xf5, 0xfe, 0xf6, 0xf2, 0x05,
  0xfd, 0x00, 0xfb, 0xf7, 0xf6, 0xf8, 0xf9, 0xf2, 0xf6, 0xde, 0xf4, 0xe3,
  0xff, 0xe9, 0xfe, 0xfa, 0x04, 0xf5, 0xec, 0xe2, 0xf9, 0x01, 0xf9, 0xf0,
  0xfb, 0xe1, 0xf6, 0xe3, 0x0b, 0xfd, 0x02, 0x07, 0xea, 0xff, 0x08, 0x07,
  0xf3, 0xf9, 0xf1, 0x03, 0x0c, 0xf7, 0xf2, 0x05, 0xf8, 0xfb, 0x04, 0xfa,
  0xed, 0xfc, 0xfd, 0x07, 0x02, 0xfb, 0x00, 0x02, 0x07, 0x17, 0xfa, 0x05,
  0xf5, 0x03, 0x0f, 0x07, 0xf0, 0xfa, 0x0f, 0x0a, 0xfd, 0xf3, 0x0c, 0x11,
  0xff, 0x04, 0x02, 0xfb, 0xf0, 0x04, 0xee, 0x01, 0xf3, 0xeb, 0x04, 0x07,
  0x05, 0x06, 0xfd, 0x06, 0xfe, 0x17, 0x03, 0x10, 0xf5, 0xe4, 0xdd, 0xdf,
  0xe5, 0x00, 0xd4, 0xee, 0xf0, 0xed, 0xf6, 0xec, 0x15, 0xed, 0xd8, 0xf7,
  0xfd, 0xe6, 0x01, 0xed, 0xe3, 0x0d, 0xeb, 0xf5, 0xe6, 0xe1, 0xf2, 0xec,
  0x03, 0xef, 0xeb, 0xdb, 0xfc, 0xf6, 0x00, 0xe8, 0xd0, 0xff, 0xfa, 0x05,
  0xf3, 0xe3, 0xe7, 0xf6, 0xfb, 0xfd, 0xf0, 0xe6, 0xfb, 0x04, 0x21, 0xf7,
  0xe9, 0xf8, 0x04, 0x1b, 0x12, 0xf1, 0xff, 0x0b, 0xe5, 0x0a, 0x02, 0xfd,
  0xfc, 0x10, 0x15, 0x09, 0xf2, 0x06, 0x17, 0x09, 0xfd, 0xf7, 0x0a, 0x13,
  0xeb, 0x0c, 0x0b, 0x04, 0x05, 0xfa, 0x22, 0xfc, 0xf3, 0x11, 0xf5, 0x04,
  0xf0, 0xeb, 0xef, 0xf9, 0xf2, 0xfc, 0xf7, 0xf0, 0x16, 0xfa, 0x1d, 0xff,
  0xf7, 0x03, 0xfd, 0x0a, 0xf6, 0xea, 0xf2, 0xf7, 0xeb, 0xf2, 0xfc, 0xf2,
  0x16, 0xfe, 0x24, 0xfb, 0xf5, 0x18, 0x06, 0xf7, 0xff, 0x03, 0xff, 0xf7,
  0x08, 0x00, 0xfe, 0x07, 0x00, 0xf6, 0x04, 0x05, 0xf7, 0x0a, 0xed, 0x03,
  0xf9, 0x0e, 0xfb, 0xe3, 0x0a, 0xec, 0xfe, 0xff, 0xf9, 0xf8, 0x02, 0xf9,
  0xf1, 0xfa, 0xf1, 0x13, 0xf8, 0xfd, 0xf2, 0xff, 0x16, 0xfd, 0xef, 0xf7,
  0xf9, 0x09, 0xf8, 0xf7, 0xfc, 0xfa, 0xfa, 0x01, 0xfa, 0x00, 0xfb, 0xf7,
  0x09, 0xfd, 0x07, 0xf5, 0x1c, 0x07, 0x0a, 0x0c, 0x05, 0x17, 0x06, 0xf8,
  0xf7, 0xf3, 0xfe, 0x05, 0xf6, 0x05, 0x11, 0xfd, 0x04, 0x04, 0x15, 0x03,
  0xff, 0x16, 0x06, 0x02, 0xf5, 0xe2, 0xfa, 0xfb, 0xd5, 0xef, 0x00, 0xe7,
  0x0e, 0x09, 0x18, 0xff, 0xf8, 0x15, 0x12, 0xeb, 0xf9, 0xda, 0xf6, 0x0c,
  0xe2, 0xfe, 0x10, 0xf6, 0xf0, 0xf9, 0xf6, 0x08, 0xfd, 0xfe, 0xfc, 0xdd,
  0xe3, 0xd2, 0xf4, 0xe9, 0xde, 0xed, 0xf5, 0xde, 0xf5, 0xfe, 0xf5, 0xff,
  0x03, 0x02, 0x00, 0xf1, 0xef, 0xf3, 0xf1, 0xf5, 0xf2, 0xf7, 0x01, 0xf1,
  0xfd, 0xfa, 0xf9, 0xed, 0xfa, 0x02, 0xfe, 0xef, 0xfd, 0x06, 0x00, 0xfe,
  0xfe, 0xf4, 0x01, 0x03, 0xef, 0x00, 0xfd, 0xfb, 0xff, 0x0d, 0x15, 0x00,
  0x10, 0x04, 0x0a, 0x09, 0xfc, 0x11, 0x09, 0x0b, 0xed, 0x04, 0xf8, 0x02,
  0x0d, 0xfd, 0x04, 0xfe, 0x0f, 0x0a, 0x0b, 0x07, 0x0a, 0x1a, 0x0d, 0x0d,
  0x01, 0x01, 0xf0, 0x05, 0x0b, 0x03, 0xee, 0xf1, 0x0c, 0x09, 0x16, 0x1e,
  0x00, 0x23, 0x02, 0x10, 0x0b, 0x05, 0x04, 0x03, 0x0b, 0xfa, 0x00, 0x08,
  0xfa, 0xf6, 0x00, 0xfd, 0x01, 0xfb, 0x07, 0xfd, 0x09, 0x07, 0xfa, 0x06,
  0x07, 0x05, 0x16, 0x03, 0x07, 0xf7, 0x16, 0x0a, 0x05, 0x04, 0x0f, 0x0c,
  0x06, 0x06, 0xf8, 0x05, 0x0e, 0xfe, 0x10, 0xf5, 0xfd, 0xfe, 0x00, 0x01,
  0xfc, 0xfe, 0x00, 0x02, 0xfa, 0xfe, 0xf8, 0x0e, 0x11, 0xf7, 0xf4, 0xff,
  0xfb, 0x0d, 0x0e, 0xfb, 0x11, 0x04, 0xfc, 0x0a, 0x00, 0xfd, 0xec, 0x02,
  0xfc, 0xf1, 0xf8, 0x07, 0xf3, 0x06, 0x00, 0xfb, 0x35, 0x05, 0xfe, 0x00,
  0xf8, 0x00, 0x05, 0x00, 0xfe, 0x02, 0x0e, 0x27, 0x0a, 0xfa, 0x00, 0x0b,
  0x12, 0x10, 0x05, 0xfd, 0xf9, 0x04, 0x21, 0x04, 0xff, 0x10, 0x10, 0x18,
  0x17, 0x0b, 0xf7, 0xff, 0x12, 0xfb, 0xff, 0x08, 0x0d, 0x08, 0x06, 0x0b,
  0x06, 0x06, 0x05, 0x11, 0x0f, 0x0b, 0x04, 0x01, 0x14, 0x05, 0x0f, 0x01,
  0x0b, 0x03, 0xf4, 0xff, 0x09, 0xfe, 0x01, 0xf5, 0xf9, 0x0d, 0x04, 0xff,
  0xf8, 0x00, 0x01, 0x15, 0xfe, 0xff, 0xf5, 0xf4, 0xff, 0x06, 0x02, 0x11,
  0x0c, 0x07, 0x02, 0xfe, 0x01, 0x03, 0xf7, 0x04, 0x1c, 0x01, 0xfc, 0x06,
  0x00, 0x0e, 0xf9, 0xee, 0xf8, 0x0e, 0x06, 0xf6, 0x02, 0xf4, 0x04, 0x00,
  0x1a, 0xf4, 0x00, 0xfc, 0x00, 0x15, 0xf4, 0xf5, 0xf8, 0x05, 0xfd, 0xf0,
  0xf2, 0xf1, 0x00, 0xf7, 0xff, 0xee, 0xf2, 0xf7, 0x07, 0x04, 0xe7, 0xe6,
  0xf7, 0xfc, 0xf8, 0xea, 0xef, 0xdf, 0xf6, 0xdf, 0xfb, 0xf5, 0xff, 0xfc,
  0xf4, 0x02, 0xf7, 0xf0, 0xfd, 0xf5, 0xed, 0x06, 0xe0, 0xf1, 0xe8, 0xeb,
  0xf9, 0x00, 0x01, 0x01, 0xf8, 0x01, 0x07, 0xfd, 0xf7, 0xe3, 0x03, 0x0e,
  0xe3, 0xfa, 0xfd, 0xf8, 0xe1, 0x15, 0x0b, 0x0a, 0x12, 0xee, 0x0e, 0x0c,
  0x03, 0x0b, 0x13, 0x1e, 0xfd, 0x0e, 0x0f, 0x09, 0x12, 0x0e, 0xf0, 0x10,
  0x15, 0x05, 0xf5, 0x07, 0x0c, 0x05, 0x0f, 0x03, 0x0e, 0x13, 0x09, 0x0f,
  0x13, 0x08, 0xf3, 0x0e, 0x0f, 0x09, 0x06, 0xe6, 0xf8, 0x0b, 0x0c, 0xfc,
  0xfe, 0xfb, 0x15, 0x09, 0x17, 0x08, 0xfc, 0x15, 0x02, 0x01, 0x0b, 0x02,
  0xf2, 0x0e, 0x04, 0xf3, 0x07, 0xf6, 0x09, 0x05, 0xf9, 0xf5, 0xf7, 0x05,
  0xf9, 0x11, 0x06, 0x16, 0xfb, 0xf4, 0xf9, 0x08, 0xf6, 0xfb, 0x03, 0x00,
  0xf7, 0x06, 0x05, 0xf6, 0x03, 0x09, 0x04, 0x0b, 0x17, 0xf8, 0x06, 0x00,
  0xf3, 0x0d, 0x0a, 0x04, 0xdf, 0xe5, 0xec, 0xd7, 0xf2, 0xf8, 0xd2, 0xf3,
  0xdb, 0x0d, 0xe2, 0xd1, 0x1d, 0xf7, 0xdf, 0xf5, 0xfa, 0xe9, 0xf3, 0xf9,
  0xf4, 0xff, 0xfc, 0xff, 0xff, 0x0e, 0xf0, 0xe6, 0x01, 0xec, 0xeb, 0xf6,
  0xf5, 0xef, 0x07, 0xef, 0xf6, 0x04, 0x0d, 0x04, 0xfc, 0x01, 0xef, 0xf8,
  0x0b, 0xed, 0xf2, 0xf2, 0xf7, 0x00, 0x01, 0xfd, 0xfb, 0x06, 0x11, 0x07,
  0x07, 0x05, 0x05, 0x14, 0x0c, 0x0a, 0xfd, 0x00, 0x1a, 0xfb, 0x07, 0xfa,
  0xf8, 0x0d, 0x14, 0xfa, 0x02, 0xf6, 0xff, 0x0e, 0x0b, 0x04, 0x03, 0x0c,
  0xfb, 0xf6, 0x0b, 0xfb, 0xf6, 0x0b, 0xfb, 0x1d, 0xfb, 0x0a, 0x01, 0xfa,
  0x08, 0x06, 0x01, 0xfb, 0xdf, 0xf3, 0xf2, 0xe6, 0xe0, 0x03, 0x12, 0xfd,
  0xf8, 0xc1, 0xf0, 0x03, 0xca, 0xfb, 0xdc, 0xed, 0x03, 0xfb, 0x02, 0xfc,
  0xe6, 0xfd, 0x0f, 0x0a, 0xf1, 0x0d, 0xf6, 0x04, 0x13, 0x15, 0xeb, 0x16,
  0xf6, 0x04, 0x1e, 0xf5, 0x02, 0x07, 0x0d, 0x0c, 0xf7, 0xf8, 0x06, 0xfb,
  0x07, 0x00, 0xf8, 0xfd, 0x00, 0x10, 0x07, 0x06, 0x05, 0x0c, 0x0f, 0x16,
  0x10, 0x05, 0x10, 0x11, 0xf2, 0x15, 0x06, 0x05, 0x04, 0xff, 0x05, 0xff,
  0xf9, 0x03, 0xf7, 0x0c, 0x0b, 0xfe, 0x02, 0x15, 0xfb, 0x1b, 0xfe, 0x1e,
  0xf7, 0x0c, 0x12, 0x0a, 0xfd, 0x03, 0x07, 0x05, 0x01, 0xeb, 0x09, 0x0d,
  0xf9, 0xfe, 0x0c, 0x06, 0xec, 0x00, 0xf0, 0xfa, 0x00, 0xfc, 0xfc, 0xfe,
  0x08, 0x0d, 0xff, 0xfb, 0x13, 0xfd, 0xfb, 0x0a, 0xff, 0x04, 0xd5, 0x01,
  0x02, 0xe0, 0x00, 0x11, 0x05, 0x14, 0x05, 0x07, 0xdc, 0x00, 0xfe, 0xfb,
  0xf2, 0x03, 0x1b, 0x03, 0x01, 0xf6, 0x05, 0xf9, 0x05, 0x06, 0x02, 0x03,
  0xea, 0x0a, 0xf8, 0xff, 0xf4, 0x08, 0x1c, 0x08, 0x06, 0x0c, 0xff, 0x16,
  0xf8, 0xf6, 0x0f, 0x09, 0x13, 0x0a, 0x02, 0xf8, 0x13, 0x01, 0xe8, 0x0a,
  0x15, 0x00, 0x01, 0xe4, 0x08, 0x02, 0x0e, 0x0e, 0xe4, 0xfa, 0x1a, 0x06,
  0x1b, 0x01, 0x04, 0x17, 0x12, 0x0e, 0x01, 0xec, 0xe5, 0x08, 0x03, 0xf7,
  0x01, 0xdc, 0x0d, 0xf9, 0xe8, 0xf7, 0xfd, 0xf8, 0xff, 0xeb, 0x08, 0xf8,
  0xfe, 0x09, 0x00, 0xfc, 0xfe, 0xf8, 0xfb, 0x02, 0xfe, 0x00, 0xf3, 0x01,
  0x00, 0xd8, 0xed, 0xf8, 0x08, 0x01, 0x00, 0x05, 0xf8, 0x10, 0xfe, 0x09,
  0x10, 0xff, 0x18, 0xf7, 0xf7, 0x04, 0xf5, 0x04, 0x03, 0xfb, 0xfe, 0x0a,
  0xfb, 0x11, 0x02, 0x08, 0xea, 0xf6, 0xf7, 0xff, 0xfd, 0xf7, 0xf7, 0xf5,
  0xfd, 0xfe, 0x07, 0xfa, 0xf8, 0x0a, 0xfd, 0xfb, 0x05, 0xea, 0x18, 0xf3,
  0x00, 0x0c, 0xef, 0xf6, 0x07, 0x0c, 0xf4, 0xfb, 0x10, 0xfc, 0xf5, 0x01,
  0xfc, 0xf6, 0x0e, 0xff, 0xfb, 0x10, 0x1b, 0x0f, 0xfe, 0x01, 0xfe, 0x03,
  0x0a, 0xf7, 0xfe, 0xf5, 0x17, 0x19, 0x02, 0x12, 0x09, 0xfa, 0x09, 0x0b,
  0x13, 0x0e, 0x15, 0x1d, 0x02, 0x1a, 0x17, 0x1d, 0xf6, 0x02, 0xfc, 0xff,
  0xf7, 0xfe, 0x0b, 0x09, 0x00, 0xff, 0xee, 0x07, 0x05, 0x06, 0xfb, 0x05,
  0x01, 0x01, 0x0e, 0xf2, 0xfa, 0x09, 0x05, 0x03, 0xf6, 0x01, 0xf7, 0xf3,
  0x10, 0x0b, 0xfb, 0x0f, 0xf5, 0x0a, 0xe6, 0xf4, 0xf6, 0x00, 0x09, 0x04,
  0x1b, 0xfb, 0xf3, 0x09, 0xdf, 0xff, 0x02, 0x0d, 0x00, 0xf7, 0x03, 0xf0,
  0xef, 0x10, 0xfe, 0xf4, 0xf0, 0x06, 0xf6, 0xfb, 0xf6, 0x05, 0xf8, 0xfd,
  0xf2, 0xec, 0x08, 0xf4, 0xee, 0x0e, 0xf6, 0x1e, 0xf1, 0x09, 0xfb, 0xef,
  0x1b, 0xff, 0xef, 0x06, 0xf3, 0xf0, 0xfa, 0xdb, 0xe8, 0xe7, 0x19, 0xef,
  0xec, 0xec, 0xe7, 0xf7, 0x03, 0xef, 0xe6, 0xe3, 0x02, 0xfe, 0xf0, 0x01,
  0xfb, 0xf0, 0x11, 0xe7, 0xf3, 0xee, 0x06, 0x07, 0xf4, 0x0b, 0x01, 0xff,
  0xfd, 0x02, 0xfc, 0x02, 0x0d, 0x10, 0xe3, 0x0b, 0x00, 0x1e, 0x0b, 0xf0,
  0x21, 0x07, 0xf4, 0x0a, 0xf0, 0xfd, 0x00, 0xfd, 0x06, 0x08, 0x05, 0x0a,
  0x08, 0xfb, 0x08, 0xfb, 0x00, 0x09, 0x00, 0x05, 0x07, 0xef, 0xf0, 0xfd,
  0x0e, 0x11, 0xf8, 0xdb, 0xe2, 0xfb, 0xf7, 0xef, 0x02, 0xf7, 0x00, 0xfe,
  0xe2, 0xf3, 0xfe, 0xf3, 0x0f, 0x0a, 0xec, 0xfd, 0xed, 0xf6, 0xfa, 0xea,
  0xfd, 0xdf, 0xe6, 0xe2, 0x1d, 0xfe, 0xf6, 0xfb, 0xfc, 0x03, 0xfd, 0xf6,
  0xf6, 0xd9, 0x00, 0xfd, 0xed, 0xe7, 0xf8, 0xdf, 0x13, 0xfe, 0x08, 0x00,
  0xf9, 0xfa, 0x07, 0x06, 0xef, 0xeb, 0xf6, 0xfe, 0xd9, 0xf1, 0x02, 0xf5,
  0x0d, 0xf8, 0x0e, 0xf4, 0xf1, 0x25, 0x0f, 0x16, 0xec, 0xed, 0xec, 0xf5,
  0xff, 0xfe, 0xfa, 0xf4, 0xe8, 0xe4, 0xe1, 0xf6, 0x00, 0x03, 0x0c, 0xea,
  0xeb, 0xf8, 0xf2, 0xe5, 0xf0, 0xeb, 0xef, 0xed, 0xf0, 0xee, 0x0e, 0xfa,
  0xf6, 0xff, 0x02, 0x03, 0xf1, 0x00, 0xed, 0xfa, 0x0c, 0xf7, 0xf1, 0xfa,
  0xf1, 0x06, 0x07, 0xfe, 0xf5, 0x00, 0xfb, 0x03, 0xf9, 0xfa, 0x04, 0xfe,
  0x03, 0xf5, 0xfc, 0xf3, 0x24, 0x10, 0x03, 0xff, 0xfe, 0x0a, 0x07, 0x12,
  0x06, 0x05, 0xfa, 0x0d, 0x00, 0x0b, 0x0a, 0x05, 0x05, 0x11, 0x0a, 0x05,
  0x07, 0xf4, 0xf2, 0x15, 0x03, 0xf9, 0x08, 0x10, 0xfb, 0xfe, 0x0a, 0xfc,
  0x04, 0x09, 0xf2, 0x08, 0x00, 0x08, 0x01, 0xe9, 0xf7, 0xee, 0x02, 0x11,
  0xfc, 0x04, 0x09, 0xf5, 0xf7, 0x08, 0xef, 0x09, 0x01, 0xef, 0xfb, 0xd9,
  0xf9, 0xe9, 0x06, 0x02, 0xea, 0xfa, 0x04, 0xeb, 0xf6, 0xf6, 0xf6, 0xf7,
  0xf1, 0x06, 0xf2, 0xfa, 0xf7, 0xf6, 0xef, 0x00, 0xef, 0xf9, 0xf6, 0xf5,
  0xe5, 0x05, 0x16, 0xf8, 0xed, 0xfe, 0xe9, 0x01, 0x00, 0xf5, 0x03, 0x05,
  0xec, 0x02, 0xf5, 0xf7, 0xea, 0xe1, 0xf9, 0xc0, 0xeb, 0x07, 0xda, 0x05,
  0xe3, 0xf7, 0xe0, 0xce, 0x0a, 0xfe, 0xdb, 0xf1, 0xfc, 0xfb, 0x01, 0xf5,
  0x06, 0xf9, 0xfd, 0x16, 0x03, 0xf9, 0x0c, 0xf9, 0x0a, 0x15, 0xf4, 0x08,
  0x06, 0x09, 0xeb, 0xff, 0xfa, 0xfa, 0x06, 0xfb, 0x00, 0x04, 0x02, 0x00,
  0xf5, 0x02, 0xfc, 0x02, 0xf4, 0x06, 0xff, 0x02, 0x05, 0x09, 0x06, 0xf6,
  0x18, 0x0c, 0x04, 0x15, 0xfa, 0xfd, 0xfa, 0xf2, 0x26, 0x06, 0x09, 0xf7,
  0xf5, 0xfb, 0x12, 0xfc, 0x09, 0x01, 0xfd, 0x11, 0x11, 0x0a, 0x0b, 0x15,
  0xfb, 0x0b, 0xfe, 0x07, 0xfb, 0xfd, 0x08, 0xfb, 0x01, 0xee, 0xff, 0x0c,
  0x0c, 0xef, 0x07, 0xf3, 0x81, 0xf4, 0x08, 0xb9, 0xed, 0x12, 0x10, 0xfd,
  0xed, 0xec, 0xf6, 0xed, 0xce, 0xe5, 0xbb, 0xd9, 0xf5, 0x0d, 0xff, 0xfc,
  0xfe, 0xf6, 0x0d, 0xf8, 0x0a, 0x14, 0xfe, 0x03, 0x35, 0x21, 0xf8, 0x2c,
  0x01, 0x1a, 0x19, 0x06, 0x01, 0xf9, 0x36, 0x18, 0x0e, 0x0c, 0x03, 0x10,
  0x1b, 0x20, 0x04, 0x09, 0xfd, 0x18, 0xfc, 0x12, 0x0c, 0xfd, 0x24, 0xfd,
  0x15, 0x0b, 0x0d, 0x02, 0xfd, 0x21, 0x19, 0x0c, 0x03, 0x02, 0xfd, 0xfa,
  0xfe, 0x01, 0x08, 0xfa, 0x04, 0x0f, 0xfc, 0x13, 0x09, 0x27, 0x09, 0x20,
  0x0f, 0x0b, 0x06, 0x0c, 0x05, 0x04, 0xf8, 0xff, 0xf6, 0xf5, 0x0d, 0xf3,
  0xf0, 0xfd, 0x15, 0x03, 0x18, 0xdf, 0xff, 0xff, 0x1c, 0xdf, 0xff, 0xff,
  0x20, 0xdf, 0xff, 0xff, 0xee, 0xf5, 0xff, 0xff, 0x04, 0x00, 0x00, 0x00,
  0x40, 0x00, 0x00, 0x00, 0xd4, 0xfe, 0xff, 0xff, 0xa1, 0xff, 0xff, 0xff,
  0xc6, 0xff, 0xff, 0xff, 0xed, 0xff, 0xff, 0xff, 0xa9, 0xfd, 0xff, 0xff,
  0x0f, 0x00, 0x00, 0x00, 0x73, 0x00, 0x00, 0x00, 0xd7, 0xff, 0xff, 0xff,
  0xe9, 0xfd, 0xff, 0xff, 0xce, 0x00, 0x00, 0x00, 0x67, 0xff, 0xff, 0xff,
  0xb3, 0xfe, 0xff, 0xff, 0x49, 0x00, 0x00, 0x00, 0x18, 0x00, 0x00, 0x00,
  0x36, 0xff, 0xff, 0xff, 0x3c, 0x00, 0x00, 0x00, 0x3a, 0xf6, 0xff, 0xff,
  0x04, 0x00, 0x00, 0x00, 0x00, 0x04, 0x00, 0x00, 0xed, 0xfe, 0x14, 0x06,
  0x1d, 0x31, 0x1b, 0x44, 0xba, 0x0f, 0xeb, 0x31, 0x00, 0x22, 0x28, 0xed,
  0xcc, 0xc6, 0x9c, 0xb9, 0x81, 0xec, 0x9e, 0xd1, 0xf8, 0xb5, 0xcb, 0xab,
  0xb7, 0xd8, 0xb8, 0x04, 0x0d, 0xeb, 0x2d, 0x0a, 0x32, 0x13, 0x34, 0x61,
  0xda, 0x6b, 0xd5, 0x0c, 0x34, 0x31, 0x2f, 0xc2, 0xbf, 0xfc, 0xe6, 0xd8,
  0xce, 0x1c, 0xf5, 0x0f, 0xca, 0xe5, 0xdc, 0xf5, 0xbc, 0xfc, 0xf2, 0x10,
  0xf9, 0xef, 0xe8, 0x1a, 0x0d, 0xe4, 0x01, 0x01, 0x1e, 0xc6, 0xe6, 0xf3,
  0x23, 0x02, 0xaa, 0x07, 0xe0, 0x27, 0xf5, 0xc8, 0xfc, 0xe5, 0xcb, 0x23,
  0x37, 0xf5, 0xe8, 0x16, 0x00, 0x2b, 0xea, 0x08, 0x38, 0x94, 0x7a, 0x1e,
  0x68, 0x1c, 0x4c, 0xf7, 0x08, 0x56, 0x47, 0x22, 0x3f, 0x09, 0x32, 0x81,
  0x27, 0xe5, 0x3a, 0x41, 0xea, 0x06, 0x08, 0xd3, 0xdf, 0xd4, 0x02, 0x02,
  0x1e, 0xe5, 0x38, 0xe7, 0xf9, 0xf7, 0xfb, 0xf4, 0x0f, 0x89, 0xf9, 0xd1,
  0x25, 0x02, 0x18, 0xd1, 0xfd, 0x8b, 0xfb, 0xe9, 0x0a, 0xe0, 0xff, 0xfd,
  0x13, 0x7f, 0x1a, 0x51, 0xcd, 0x2d, 0xef, 0x16, 0xfb, 0x15, 0x0d, 0x01,
  0xf1, 0xdb, 0xf8, 0x05, 0xf6, 0xae, 0xe4, 0xd3, 0x2b, 0xee, 0x01, 0xe8,
  0xea, 0xe2, 0xf9, 0xf4, 0x08, 0xf4, 0x14, 0xf9, 0x23, 0x46, 0x11, 0x0d,
  0x05, 0x22, 0xfe, 0x0c, 0x1b, 0x1f, 0x00, 0xe6, 0xeb, 0x13, 0xec, 0xe9,
  0x29, 0xd4, 0xe9, 0x04, 0xe4, 0x1a, 0xca, 0x15, 0x26, 0x0e, 0xac, 0x29,
  0xe3, 0x06, 0xd7, 0xd9, 0xfa, 0xfb, 0x10, 0x30, 0x1d, 0x2c, 0x11, 0xfc,
  0xe1, 0xe9, 0xef, 0x10, 0x2c, 0xdf, 0x3f, 0x47, 0x37, 0x14, 0x05, 0xe9,
  0xfe, 0xfc, 0x7f, 0x49, 0x50, 0x0e, 0x63, 0xd3, 0xf4, 0x00, 0x17, 0xec,
  0xc9, 0xfe, 0xed, 0x9e, 0xf5, 0xb1, 0xc9, 0xf4, 0xe3, 0xc2, 0x19, 0x21,
  0xec, 0x17, 0x30, 0x1e, 0xc6, 0xcf, 0x38, 0x18, 0xa6, 0x07, 0xe3, 0xc7,
  0xf2, 0x3a, 0xb4, 0xbd, 0x32, 0x13, 0x16, 0xec, 0x10, 0xcf, 0x1a, 0x51,
  0x0f, 0x25, 0x1f, 0x12, 0xf6, 0x1e, 0xe7, 0x3f, 0xa9, 0xef, 0x35, 0x74,
  0x36, 0x9a, 0x42, 0x81, 0x8f, 0xcc, 0x68, 0x5f, 0xfb, 0xd7, 0x72, 0xe2,
  0xde, 0x13, 0xd5, 0x31, 0xd7, 0xf7, 0xfe, 0x90, 0xe7, 0xee, 0xcb, 0x33,
  0x24, 0xe1, 0x19, 0xd1, 0xfc, 0xf4, 0xd2, 0xe5, 0xea, 0xc2, 0xe0, 0xb4,
  0xf0, 0xfe, 0xfd, 0xbe, 0xfa, 0x9a, 0xc8, 0xda, 0x0f, 0x06, 0x34, 0xec,
  0x0c, 0x3f, 0x19, 0x65, 0xf3, 0x48, 0x02, 0x2a, 0x27, 0x37, 0x1c, 0xea,
  0xdd, 0xdf, 0xbe, 0xe9, 0xb6, 0xde, 0xdb, 0x86, 0xff, 0x88, 0xde, 0xeb,
  0x81, 0xaa, 0xd4, 0xfb, 0xf3, 0xde, 0xef, 0xf7, 0x1d, 0x28, 0xf2, 0xf1,
  0x20, 0x0d, 0x23, 0xfc, 0xfc, 0xf6, 0x11, 0xee, 0xa8, 0x92, 0xc4, 0x81,
  0x9b, 0x92, 0xa8, 0xc1, 0x1e, 0xe5, 0xd4, 0x94, 0xc1, 0x83, 0xaf, 0xa4,
  0xf0, 0xd8, 0xfc, 0x17, 0xec, 0xe0, 0xd9, 0xf3, 0xd4, 0x06, 0x38, 0xfe,
  0x01, 0xd6, 0xf9, 0x0a, 0x5b, 0xae, 0x5c, 0x52, 0x40, 0x3c, 0x5e, 0x72,
  0x98, 0x71, 0xee, 0x4e, 0x3e, 0x45, 0x0b, 0xf4, 0x43, 0xdc, 0x41, 0x2f,
  0x4a, 0xf8, 0x27, 0x06, 0xf0, 0x43, 0xe9, 0x0e, 0x48, 0x1f, 0x34, 0xd1,
  0x0f, 0xf5, 0x31, 0x0d, 0x22, 0xf8, 0x11, 0x2f, 0x0c, 0x3a, 0x0e, 0x1e,
  0x0a, 0xf6, 0x07, 0x15, 0x0d, 0xdd, 0x08, 0x05, 0x10, 0x03, 0x0c, 0x24,
  0xb4, 0x10, 0xbe, 0x16, 0x04, 0x24, 0xf8, 0x0d, 0xa4, 0xbc, 0xc6, 0xef,
  0xfd, 0xba, 0xd5, 0x81, 0x56, 0xb1, 0x2f, 0xdb, 0x9a, 0xba, 0x03, 0xc9,
  0x02, 0xd7, 0x19, 0x08, 0x12, 0x61, 0x1e, 0x1b, 0x16, 0x26, 0x16, 0x04,
  0x1a, 0x03, 0x1b, 0xe8, 0x26, 0xf5, 0xf5, 0x07, 0xf6, 0xf6, 0x39, 0xf0,
  0x1d, 0xf5, 0xe9, 0x45, 0x34, 0x3d, 0x30, 0x22, 0x0c, 0xe5, 0xfc, 0x36,
  0xf2, 0xc7, 0x24, 0x0c, 0xc3, 0xec, 0xd1, 0xfe, 0x44, 0xfa, 0x00, 0x00,
  0xe8, 0x81, 0x57, 0x28, 0x1b, 0xfc, 0xfd, 0x0b, 0xea, 0x53, 0x24, 0xe0,
  0x08, 0x11, 0x03, 0xc9, 0x2d, 0xd1, 0x35, 0xfc, 0x36, 0x18, 0xf7, 0x2f,
  0x16, 0x26, 0xf2, 0xe9, 0x2b, 0x09, 0x41, 0xbb, 0x1b, 0xfe, 0x16, 0x49,
  0xf0, 0x04, 0x47, 0x02, 0xa3, 0x24, 0x0e, 0x33, 0x40, 0x0a, 0x2a, 0x10,
  0x38, 0x18, 0x2e, 0x14, 0x1f, 0xa9, 0x0b, 0x0a, 0x81, 0x26, 0x23, 0x20,
  0x3a, 0x12, 0x10, 0xfe, 0xc1, 0xc0, 0xbc, 0xe1, 0xd7, 0xfe, 0xc4, 0xa1,
  0x10, 0xc2, 0x07, 0xec, 0xa7, 0xe2, 0x0e, 0x06, 0xd7, 0xf6, 0xdf, 0xbe,
  0xb0, 0xae, 0xdf, 0x95, 0xd1, 0xa7, 0xe5, 0xe0, 0xee, 0xe7, 0xce, 0x01,
  0x4a, 0xe9, 0x14, 0x60, 0x1f, 0x89, 0x19, 0x18, 0x98, 0x50, 0xdf, 0x00,
  0x47, 0xf1, 0xbc, 0xa6, 0x2c, 0x15, 0xb3, 0xf5, 0x9a, 0x85, 0x0c, 0x33,
  0x38, 0xb4, 0xd1, 0x05, 0x2c, 0x43, 0xf5, 0x4d, 0xcf, 0xb0, 0x1c, 0x22,
  0x7f, 0xb5, 0x6d, 0x0f, 0xbb, 0xfe, 0x11, 0x59, 0xf1, 0xca, 0x41, 0x9a,
  0xe3, 0x07, 0x15, 0x15, 0x27, 0x51, 0x2e, 0x81, 0xce, 0xbf, 0x18, 0xdb,
  0x3b, 0xe6, 0x49, 0xbc, 0x06, 0xe9, 0x0e, 0x06, 0x04, 0xd9, 0x07, 0x30,
  0x19, 0x30, 0xbc, 0x10, 0xf3, 0x2a, 0xf1, 0x0a, 0xff, 0xe8, 0xf6, 0x17,
  0x17, 0xdc, 0x17, 0x09, 0x0a, 0x06, 0xdf, 0xea, 0xfb, 0xf2, 0xfc, 0x02,
  0xf5, 0x8a, 0x64, 0x0d, 0x28, 0x17, 0x34, 0x7f, 0x0d, 0x63, 0x1b, 0x08,
  0x17, 0x50, 0x0d, 0xd0, 0x09, 0xe9, 0x23, 0x33, 0x13, 0x16, 0x1c, 0xff,
  0xed, 0xd9, 0x0e, 0x23, 0x1e, 0xf6, 0xfb, 0xf0, 0xff, 0xc8, 0x30, 0x3f,
  0x3b, 0x21, 0x38, 0x41, 0xb4, 0x4c, 0x01, 0x4a, 0xfe, 0x2d, 0x51, 0xe6,
  0x25, 0xd3, 0x0c, 0x1b, 0x26, 0x06, 0x27, 0x3f, 0xff, 0x36, 0x13, 0x0f,
  0x1d, 0xfc, 0x3a, 0x01, 0x82, 0xa3, 0x93, 0xbd, 0xaf, 0x0c, 0xb6, 0x86,
  0x19, 0xd0, 0xef, 0xb3, 0x81, 0xda, 0xcb, 0xfc, 0xf4, 0x0f, 0xd2, 0xc1,
  0xbc, 0xcb, 0xc6, 0xc2, 0xeb, 0xd3, 0xf6, 0xb1, 0x01, 0xbd, 0xac, 0x24,
  0x44, 0xab, 0x26, 0x19, 0x0e, 0xeb, 0x09, 0x5a, 0xad, 0x2f, 0xd7, 0x0c,
  0x45, 0x2a, 0x0c, 0xc4, 0x1e, 0x03, 0x2a, 0x09, 0xef, 0xc4, 0xef, 0x24,
  0xec, 0x13, 0xeb, 0x09, 0x13, 0xfb, 0xfc, 0x05, 0xe9, 0x81, 0x05, 0x1b,
  0x0c, 0x13, 0xfb, 0x08, 0x2e, 0x13, 0x31, 0x08, 0xf7, 0xf5, 0x34, 0xd6,
  0xb3, 0xde, 0x0d, 0xee, 0xe6, 0x2e, 0xf7, 0xfd, 0x12, 0xe3, 0x1e, 0x09,
  0xdd, 0xe9, 0x0b, 0xdb, 0x2f, 0xde, 0x2a, 0x2d, 0x19, 0xe8, 0xe7, 0x2f,
  0x30, 0x49, 0xdf, 0x00, 0xf4, 0x0f, 0xc0, 0xf3, 0xc5, 0x1b, 0xed, 0xd7,
  0xdd, 0xd2, 0x16, 0x03, 0x33, 0x00, 0xe2, 0x02, 0xd8, 0x1a, 0xe3, 0x21,
  0x11, 0xb8, 0x50, 0x1b, 0x4a, 0xff, 0x43, 0x59, 0x30, 0x5e, 0x3b, 0x53,
  0x3e, 0x47, 0x3d, 0xa7, 0xff, 0x28, 0xf0, 0x2a, 0xe4, 0xb0, 0x0c, 0xb4,
  0x08, 0x81, 0xfc, 0xda, 0xc0, 0xdd, 0x22, 0xb3, 0x65, 0xdd, 0x25, 0x03,
  0x1d, 0xc0, 0x49, 0x4c, 0x81, 0x1d, 0xd6, 0x2d, 0x57, 0x30, 0x30, 0xc7,
  0x1e, 0x0c, 0x37, 0xfc, 0x23, 0xc8, 0x1b, 0xff, 0xb9, 0x0d, 0xcc, 0xf7,
  0x25, 0x20, 0xde, 0x10, 0xc0, 0x84, 0x02, 0xe2, 0xc9, 0x4c, 0xec, 0xff,
  0x37, 0x1e, 0x20, 0x07, 0xad, 0xc0, 0x24, 0xbe, 0xca, 0xd7, 0xec, 0x0c,
  0x03, 0x20, 0xbc, 0xf6, 0xff, 0x26, 0x42, 0xcd, 0xf2, 0xd7, 0xf3, 0x3b,
  0x7c, 0xe3, 0xff, 0xff, 0x80, 0xe3, 0xff, 0xff, 0x4e, 0xfa, 0xff, 0xff,
  0x04, 0x00, 0x00, 0x00, 0x40, 0x00, 0x00, 0x00, 0x7d, 0x01, 0x00, 0x00,
  0x62, 0xf6, 0xff, 0xff, 0xde, 0xff, 0xff, 0xff, 0x7b, 0x00, 0x00, 0x00,
  0x56, 0x00, 0x00, 0x00, 0xd4, 0x00, 0x00, 0x00, 0x03, 0x00, 0x00, 0x00,
  0x3d, 0x00, 0x00, 0x00, 0xca, 0x03, 0x00, 0x00, 0x10, 0x00, 0x00, 0x00,
  0xb7, 0x02, 0x00, 0x00, 0x61, 0x00, 0x00, 0x00, 0xc2, 0x00, 0x00, 0x00,
  0x81, 0x00, 0x00, 0x00, 0x57, 0x00, 0x00, 0x00, 0xb5, 0xfa, 0xff, 0xff,
  0x9a, 0xfa, 0xff, 0xff, 0x04, 0x00, 0x00, 0x00, 0x00, 0x04, 0x00, 0x00,
  0xd1, 0x0c, 0xce, 0x11, 0x00, 0xe9, 0x0a, 0xf5, 0xed, 0xe6, 0xeb, 0xae,
  0xfa, 0xc2, 0xf6, 0x0e, 0xf0, 0xf7, 0x0c, 0x02, 0x0e, 0x15, 0xf3, 0xf2,
  0xf5, 0x1e, 0xff, 0x1e, 0xed, 0xd5, 0xf9, 0x1e, 0x5b, 0xf9, 0x77, 0x08,
  0x58, 0x17, 0x22, 0x48, 0x34, 0x4c, 0x68, 0xa5, 0xf8, 0xc0, 0x57, 0x7f,
  0x51, 0x12, 0xfc, 0xf7, 0x41, 0x17, 0x38, 0xe5, 0x42, 0x51, 0x53, 0xc6,
  0x0b, 0x9f, 0x40, 0x49, 0x04, 0x16, 0x0a, 0xfd, 0x1d, 0xe8, 0x5f, 0x05,
  0x0e, 0x1e, 0x0a, 0x53, 0x0c, 0x2a, 0x28, 0x26, 0x14, 0xe8, 0xdb, 0xfc,
  0x22, 0x07, 0x41, 0x00, 0x0f, 0x05, 0xfd, 0x4d, 0xfa, 0x29, 0x2e, 0x3b,
  0x47, 0xfe, 0x45, 0xf0, 0x69, 0x19, 0x3b, 0x5a, 0x58, 0x57, 0x43, 0x7d,
  0xf3, 0x60, 0x7f, 0x67, 0x23, 0x12, 0x51, 0x02, 0x4a, 0xfb, 0x06, 0x55,
  0x2a, 0x44, 0x49, 0x0d, 0x02, 0x46, 0x40, 0x57, 0xf3, 0xf5, 0xf1, 0xe9,
  0x1c, 0xf1, 0x02, 0xf5, 0x1e, 0x19, 0xf1, 0xa5, 0x12, 0xaf, 0x0c, 0xfd,
  0x0a, 0xff, 0x24, 0xea, 0x32, 0xf5, 0xf3, 0x0e, 0xee, 0x3a, 0x0a, 0xbe,
  0x0a, 0xc3, 0x27, 0x3a, 0x3a, 0xfd, 0x76, 0xf5, 0x21, 0x1a, 0x05, 0x75,
  0x29, 0x4b, 0x1f, 0xaf, 0x03, 0x81, 0xfc, 0x2e, 0x6a, 0xff, 0xdd, 0xfe,
  0x27, 0x09, 0xfc, 0xa8, 0x4b, 0x46, 0x13, 0xc5, 0xf7, 0xc2, 0x24, 0x21,
  0x3f, 0xff, 0xeb, 0x06, 0x21, 0x01, 0xfb, 0x02, 0x16, 0x24, 0x00, 0xdd,
  0x07, 0xbc, 0x4b, 0x0d, 0x22, 0x11, 0x31, 0xf2, 0x40, 0xea, 0xfa, 0x35,
  0x37, 0x29, 0x3b, 0x1e, 0xe7, 0xfe, 0x2d, 0x5e, 0x7f, 0xf9, 0x61, 0x1e,
  0x41, 0x0e, 0x29, 0x0c, 0x0e, 0x5a, 0x3c, 0x9e, 0xe7, 0xac, 0xfe, 0x45,
  0x53, 0xe9, 0xd9, 0x1d, 0x05, 0xf2, 0xed, 0xaf, 0x40, 0x44, 0x27, 0xe8,
  0xf7, 0xbc, 0xf2, 0x00, 0x1b, 0xf2, 0x5b, 0x0b, 0x02, 0x11, 0x14, 0x58,
  0xfc, 0x12, 0xed, 0x19, 0x13, 0xc2, 0x2b, 0x18, 0x13, 0x01, 0xfb, 0xfe,
  0x1e, 0x08, 0xd8, 0xfa, 0x0e, 0x2e, 0x0a, 0xd5, 0x02, 0xe7, 0x4b, 0x2a,
  0x0f, 0x08, 0x3d, 0xef, 0x25, 0x06, 0x19, 0x29, 0x1b, 0xfb, 0x19, 0xa6,
  0x13, 0x81, 0xed, 0x2e, 0x3c, 0xef, 0xe0, 0xeb, 0x34, 0x08, 0x16, 0xc6,
  0x23, 0x28, 0x34, 0xd4, 0x0d, 0xd1, 0x2e, 0x2a, 0x39, 0x0e, 0x10, 0x01,
  0x29, 0x08, 0xe4, 0x0f, 0x39, 0x44, 0x3e, 0xb7, 0xf1, 0xdb, 0x54, 0x20,
  0xff, 0xfc, 0x07, 0xfb, 0xd8, 0x09, 0xff, 0x08, 0xe0, 0xef, 0xff, 0xdd,
  0x0f, 0x81, 0xf4, 0xde, 0x2c, 0xf5, 0x23, 0xf3, 0x1d, 0x0a, 0x06, 0x07,
  0x1e, 0x1b, 0x1b, 0xd0, 0xf3, 0xe6, 0x14, 0xe5, 0xf2, 0xfd, 0xed, 0xf9,
  0xe5, 0x0d, 0xde, 0xee, 0xec, 0xf4, 0xed, 0xb9, 0xf3, 0xb7, 0x06, 0xfa,
  0x46, 0xed, 0x3a, 0xf3, 0x0b, 0x0d, 0x10, 0x27, 0x2c, 0x41, 0x22, 0x09,
  0x02, 0xd3, 0x4f, 0x1d, 0x21, 0xf5, 0x2a, 0xf4, 0x12, 0xf9, 0xfe, 0x40,
  0x01, 0x35, 0xf5, 0x09, 0xf4, 0xc8, 0x2a, 0x39, 0x3d, 0x16, 0x48, 0x13,
  0x4b, 0xe7, 0x05, 0x37, 0x44, 0x44, 0x20, 0x81, 0x17, 0xb4, 0x10, 0x55,
  0x47, 0xf8, 0x01, 0x10, 0x13, 0xf2, 0xf0, 0xef, 0x04, 0x38, 0x2b, 0xc6,
  0xff, 0xab, 0x37, 0x32, 0x04, 0xfa, 0xf5, 0x0c, 0xff, 0x06, 0x15, 0x0a,
  0x09, 0x1d, 0x1b, 0xf9, 0xef, 0xd3, 0x31, 0x1c, 0xf8, 0x0f, 0xf5, 0xfb,
  0xf6, 0xf0, 0xae, 0xc6, 0xf6, 0x0d, 0x06, 0x06, 0x0a, 0xce, 0xf6, 0x2b,
  0x35, 0xf0, 0x30, 0x02, 0x1e, 0xfb, 0x37, 0x39, 0x0a, 0x21, 0x04, 0x91,
  0x00, 0x81, 0x2a, 0x1e, 0x49, 0x02, 0xd7, 0xfe, 0x0f, 0xf0, 0x15, 0xea,
  0x01, 0x3f, 0x20, 0xcb, 0x04, 0xa3, 0x25, 0x2b, 0xe3, 0xfc, 0xd7, 0xf5,
  0xe8, 0x02, 0xdb, 0xd4, 0xd2, 0xd5, 0xfa, 0xf2, 0xf3, 0xe0, 0xf2, 0xd0,
  0x22, 0xf3, 0x41, 0x07, 0x4e, 0xfe, 0x20, 0x5d, 0x40, 0x3f, 0x31, 0xfc,
  0x0e, 0x2e, 0x01, 0x29, 0x9d, 0xfd, 0xb3, 0x0a, 0x9b, 0x03, 0xf5, 0xdc,
  0xaa, 0xa1, 0x9d, 0x0e, 0xfd, 0xce, 0xae, 0x81, 0xf1, 0xf8, 0x12, 0x07,
  0xe8, 0xed, 0x0b, 0xff, 0xf9, 0xe5, 0xfd, 0xe2, 0xf4, 0xf0, 0xd5, 0xe0,
  0x2f, 0xfe, 0xf8, 0xf7, 0x0a, 0x17, 0x09, 0x07, 0xfe, 0x22, 0x1f, 0xb8,
  0xe9, 0xa6, 0x42, 0x19, 0x00, 0xef, 0xe6, 0xfc, 0x0a, 0x07, 0xbd, 0xfd,
  0xe9, 0x47, 0x3f, 0x07, 0x08, 0xd0, 0x22, 0x31, 0x3f, 0x19, 0x45, 0x0c,
  0xfc, 0x05, 0x1f, 0x7a, 0x18, 0x3c, 0x25, 0x81, 0xe8, 0x86, 0xe5, 0x11,
  0x50, 0x1a, 0xfc, 0xff, 0x25, 0xf8, 0x0e, 0xdf, 0x0d, 0x4e, 0x47, 0x8d,
  0xfc, 0x86, 0x5e, 0x32, 0x24, 0x17, 0x4a, 0x06, 0x1e, 0xf6, 0x26, 0x29,
  0x1b, 0x20, 0x27, 0xe5, 0x02, 0x08, 0x60, 0x50, 0x3e, 0x0e, 0x12, 0x03,
  0x13, 0xea, 0x37, 0x22, 0x2f, 0x3e, 0x13, 0xdc, 0xf1, 0xc8, 0x53, 0x23,
  0x2f, 0x0c, 0xdc, 0x14, 0xd6, 0x1a, 0xb3, 0xf6, 0xdc, 0xdc, 0xcb, 0x13,
  0x05, 0xd9, 0xa9, 0x81, 0x48, 0x13, 0x0f, 0xea, 0x22, 0xf0, 0xc3, 0xf4,
  0x00, 0xf5, 0x24, 0x00, 0xf6, 0x1b, 0xc1, 0xd5, 0x52, 0xf7, 0x2a, 0x0c,
  0x25, 0xf1, 0xe4, 0x21, 0xfb, 0x40, 0x27, 0x1a, 0x10, 0xd6, 0x62, 0x34,
  0x15, 0x16, 0x11, 0x08, 0xff, 0xef, 0xdb, 0x10, 0x1c, 0x30, 0x16, 0x0e,
  0x10, 0xe7, 0x12, 0x19, 0x6d, 0xfc, 0x2d, 0xed, 0x49, 0x04, 0x1d, 0x24,
  0x38, 0x54, 0x2d, 0x81, 0x09, 0x9b, 0x45, 0x45, 0x45, 0x16, 0x07, 0xff,
  0x0a, 0x0a, 0x12, 0xde, 0x10, 0x30, 0x13, 0xf4, 0x12, 0x9c, 0x0b, 0x1b,
  0x1f, 0x08, 0xef, 0x17, 0x07, 0xf9, 0xfa, 0x11, 0x06, 0x04, 0xf6, 0xd5,
  0xff, 0xd1, 0xf4, 0x0c, 0x08, 0x14, 0xf6, 0xf8, 0x00, 0x02, 0x02, 0x0d,
  0xe6, 0x1f, 0x0e, 0xc4, 0xed, 0xf3, 0x28, 0x3d, 0x2d, 0x05, 0x69, 0x08,
  0x25, 0x19, 0x02, 0x46, 0x0f, 0x4f, 0x18, 0x81, 0x0f, 0x8b, 0x2b, 0x3e,
  0x7a, 0xea, 0x0b, 0x15, 0x54, 0x1a, 0x21, 0x1a, 0x3f, 0x6d, 0x43, 0xe7,
  0xf9, 0xd4, 0x71, 0x63, 0x0e, 0xf1, 0xfb, 0xf0, 0x17, 0xeb, 0xfa, 0xff,
  0x14, 0x36, 0x12, 0xdc, 0xee, 0xe3, 0x3b, 0x26, 0xee, 0x11, 0xe4, 0x08,
  0xec, 0x15, 0xf9, 0xe8, 0xf4, 0x0d, 0x14, 0xc8, 0x0c, 0xdc, 0x19, 0x21,
  0x60, 0x04, 0x0b, 0xf2, 0x28, 0x0d, 0x36, 0x0a, 0x32, 0x4c, 0x42, 0x81,
  0xec, 0xbc, 0x71, 0x64, 0x10, 0x16, 0x05, 0x10, 0xfb, 0x00, 0xed, 0xfa,
  0xf7, 0x14, 0x06, 0xef, 0x02, 0x90, 0x20, 0x0d, 0x42, 0x08, 0x42, 0xe3,
  0x1e, 0xe2, 0xfa, 0x1f, 0x31, 0x20, 0x37, 0xcb, 0x03, 0x81, 0x2c, 0x4d,
  0x2b, 0xf6, 0x30, 0xfe, 0xf9, 0x16, 0xe4, 0x4a, 0x1e, 0x21, 0x1b, 0xf7,
  0xea, 0xc7, 0x0b, 0x0f, 0x5d, 0xff, 0x3b, 0x04, 0x22, 0xe4, 0x0e, 0xe8,
  0x3c, 0x62, 0x10, 0x95, 0xed, 0x94, 0xee, 0xf8, 0x5c, 0x14, 0x1c, 0xed,
  0x20, 0xec, 0x19, 0xbe, 0x1a, 0x33, 0x4c, 0x35, 0x1c, 0xb8, 0xee, 0xc9,
  0x34, 0xdc, 0x2a, 0xd5, 0x5e, 0xfd, 0x1b, 0x12, 0x5a, 0x69, 0x28, 0x76,
  0xeb, 0x49, 0x49, 0x5b, 0xd2, 0x26, 0xf4, 0x27, 0xe6, 0x12, 0x98, 0xe0,
  0xe3, 0x0b, 0xe4, 0x12, 0xfb, 0xe2, 0xfd, 0x14, 0xcb, 0xe4, 0xd3, 0x17,
  0xdb, 0xf3, 0x96, 0xc7, 0xcc, 0xca, 0x1a, 0x14, 0x13, 0x10, 0xea, 0xf5,
  0xab, 0x29, 0xf7, 0x32, 0x9f, 0x33, 0x95, 0x89, 0x8b, 0x88, 0xbe, 0x10,
  0x03, 0x81, 0x8e, 0x99, 0xdc, 0xe7, 0xff, 0xff, 0xe0, 0xe7, 0xff, 0xff,
  0xae, 0xfe, 0xff, 0xff, 0x04, 0x00, 0x00, 0x00, 0x40, 0x00, 0x00, 0x00,
  0x07, 0x01, 0x00, 0x00, 0x04, 0xfe, 0xff, 0xff, 0x2d, 0x01, 0x00, 0x00,
  0xf1, 0xf9, 0xff, 0xff, 0xbf, 0x00, 0x00, 0x00, 0x00, 0x00, 0x00, 0x00,
  0xf8, 0x00, 0x00, 0x00, 0x9c, 0x00, 0x00, 0x00, 0x91, 0x00, 0x00, 0x00,
  0x6e, 0x01, 0x00, 0x00, 0xda, 0x00, 0x00, 0x00, 0x05, 0xe1, 0xff, 0xff,
  0x14, 0xfd, 0xff, 0xff, 0xb4, 0xf6, 0xff, 0xff, 0x67, 0x01, 0x00, 0x00,
  0x43, 0x00, 0x00, 0x00, 0xfa, 0xfe, 0xff, 0xff, 0x04, 0x00, 0x00, 0x00,
  0x40, 0x00, 0x00, 0x00, 0x7f, 0x0f, 0x07, 0xf6, 0x02, 0xc8, 0x81, 0xe4,
  0xe7, 0x7f, 0x05, 0x08, 0xa2, 0x06, 0x81, 0xf2, 0x7e, 0x70, 0x7f, 0x7f,
  0x81, 0xc6, 0xbb, 0xb7, 0xdb, 0xd8, 0x03, 0x7f, 0x90, 0x7f, 0x0e, 0x1e,
  0x78, 0x24, 0x03, 0x7f, 0x58, 0x5c, 0x7f, 0x49, 0x5e, 0x64, 0x7f, 0x59,
  0x2c, 0x7f, 0x1a, 0x44, 0x97, 0x88, 0x81, 0x03, 0x68, 0x31, 0x7f, 0x73,
  0x39, 0xac, 0x7f, 0x44, 0xe5, 0x19, 0x7f, 0x1a, 0x7c, 0xe8, 0xff, 0xff,
  0x4a, 0xff, 0xff, 0xff, 0x04, 0x00, 0x00, 0x00, 0x08, 0x00, 0x00, 0x00,
  0xff, 0xff, 0xff, 0xff, 0x80, 0x01, 0x00, 0x00, 0x94, 0xe8, 0xff, 0xff,
  0x98, 0xe8, 0xff, 0xff, 0x0f, 0x00, 0x00, 0x00, 0x4d, 0x4c, 0x49, 0x52,
  0x20, 0x43, 0x6f, 0x6e, 0x76, 0x65, 0x72, 0x74, 0x65, 0x64, 0x2e, 0x00,
  0x01, 0x00, 0x00, 0x00, 0x14, 0x00, 0x00, 0x00, 0x00, 0x00, 0x0e, 0x00,
  0x18, 0x00, 0x14, 0x00, 0x10, 0x00, 0x0c, 0x00, 0x08, 0x00, 0x04, 0x00,
  0x0e, 0x00, 0x00, 0x00, 0x14, 0x00, 0x00, 0x00, 0x1c, 0x00, 0x00, 0x00,
  0x04, 0x03, 0x00, 0x00, 0x08, 0x03, 0x00, 0x00, 0x0c, 0x03, 0x00, 0x00,
  0x04, 0x00, 0x00, 0x00, 0x6d, 0x61, 0x69, 0x6e, 0x00, 0x00, 0x00, 0x00,
  0x0b, 0x00, 0x00, 0x00, 0xcc, 0x02, 0x00, 0x00, 0x6c, 0x02, 0x00, 0x00,
  0x08, 0x02, 0x00, 0x00, 0xc0, 0x01, 0x00, 0x00, 0x7c, 0x01, 0x00, 0x00,
  0x34, 0x01, 0x00, 0x00, 0xf0, 0x00, 0x00, 0x00, 0xc8, 0x00, 0x00, 0x00,
  0x78, 0x00, 0x00, 0x00, 0x40, 0x00, 0x00, 0x00, 0x04, 0x00, 0x00, 0x00,
  0xca, 0xfd, 0xff, 0xff, 0x1c, 0x00, 0x00, 0x00, 0x00, 0x00, 0x00, 0x09,
  0x1c, 0x00, 0x00, 0x00, 0x20, 0x00, 0x00, 0x00, 0x05, 0x00, 0x00, 0x00,
  0x00, 0x00, 0x06, 0x00, 0x08, 0x00, 0x04, 0x00, 0x06, 0x00, 0x00, 0x00,
  0x00, 0x00, 0x80, 0x3f, 0x01, 0x00, 0x00, 0x00, 0x16, 0x00, 0x00, 0x00,
  0x01, 0x00, 0x00, 0x00, 0x15, 0x00, 0x00, 0x00, 0x02, 0xfe, 0xff, 0xff,
